{
  "</s>": 0,
  "<unk>": 1,
  ".": 2,
  ",": 3,
  "\u2581the": 4,
  "\u2581of": 5,
  "\u2581and": 6,
  "s": 7,
  "\u2581to": 8,
  "\u2581": 9,
  "\u2581\"": 10,
  "?": 11,
  "\u2581in": 12,
  "\u2581a": 13,
  "'": 14,
  "\u0d02": 15,
  "\u2581you": 16,
  "\u2581is": 17,
  ":": 18,
  "\u2581that": 19,
  "-": 20,
  "\u2581I": 21,
  "\u2581-": 22,
  ";": 23,
  "\u2581(": 24,
  "\u0d4d": 25,
  "\u2581for": 26,
  "\u0d41": 27,
  "t": 28,
  ")": 29,
  "\u2581it": 30,
  "!": 31,
  "\u2581\u0d12\u0d30\u0d41": 32,
  "\u2581be": 33,
  "\u2581.": 34,
  "\u2581not": 35,
  "\u2581they": 36,
  "\u2581will": 37,
  "\u2581with": 38,
  "\u2581them": 39,
  "\u2581have": 40,
  "\u2581are": 41,
  "\u2581was": 42,
  "\u0d41\u0d02": 43,
  "\u2581he": 44,
  "\u0d3f": 45,
  "\u2581\u0d05\u0d35\u0d7c": 46,
  "\u2581who": 47,
  "\u2581his": 48,
  "\u2581The": 49,
  "\u2581on": 50,
  "e": 51,
  "\u2581from": 52,
  "\u2581God": 53,
  "\u2581And": 54,
  "ed": 55,
  "m": 56,
  "d": 57,
  "\u0d3e": 58,
  "\u2581\u0d28\u0d3f\u0d19\u0d4d\u0d19\u0d7e": 59,
  "\u2581your": 60,
  "\u2581their": 61,
  "\u2581\u0d1e\u0d3e\u0d7b": 62,
  "ing": 63,
  "\u2581as": 64,
  "\u0d2f\u0d41\u0d02": 65,
  "a": 66,
  "\u258120": 67,
  "\u2581we": 68,
  "\u0d7b": 69,
  "\u2581\u2014": 70,
  "\u2581He": 71,
  "\u0d24": 72,
  "\u2581him": 73,
  "\u2581by": 74,
  "\u2581\u0d06": 75,
  "...": 76,
  "\u2581\u0d28\u0d40": 77,
  "\u0d2e": 78,
  "\u2581\u0d05\u0d35\u0d7b": 79,
  "er": 80,
  "y": 81,
  "\u2581all": 82,
  "\u2581We": 83,
  "\u2581Allah": 84,
  "\u0d24\u0d4d": 85,
  "\u0d2f": 86,
  "\u2581do": 87,
  "1": 88,
  "\u2581me": 89,
  "\u2581this": 90,
  "\u0d3e\u0d7b": 91,
  "\u0d35": 92,
  "\u2581\u0d08": 93,
  "\u2581'": 94,
  "\u0d7c": 95,
  "8": 96,
  "\u0d38\u0d4d": 97,
  "\u0d35\u0d41\u0d02": 98,
  "\u0d7d": 99,
  "\u0d15": 100,
  "\u0d47": 101,
  "\u2581what": 102,
  "\u2581\u0d28\u0d3e\u0d02": 103,
  "\u258119": 104,
  "\u0d4b": 105,
  "\u2581my": 106,
  "\u0d28": 107,
  "\u2581In": 108,
  "\u0d24\u0d4d\u0d24\u0d3f\u0d7d": 109,
  "\u0d30": 110,
  "\u2581A": 111,
  "\u2581were": 112,
  "7": 113,
  "\u2581[": 114,
  "re": 115,
  "\u2581\u0d15": 116,
  "\u2581shall": 117,
  "\u2581has": 118,
  "\u0d46": 119,
  "2": 120,
  "\u2581or": 121,
  "\u0d3f\u0d7d": 122,
  "\u2581those": 123,
  "\u2581Jehovah": 124,
  "\u2581but": 125,
  "\u2581when": 126,
  "6": 127,
  "c": 128,
  ".\"": 129,
  "\u2581\u0d05\u0d32\u0d4d\u0d32\u0d3e\u0d39\u0d41": 130,
  "\u2581said": 131,
  "\u2581one": 132,
  "\u2581s": 133,
  "\u2581people": 134,
  "\u2581\u0d0e\u0d28\u0d4d\u0d31\u0d46": 135,
  "9": 136,
  "\u2581can": 137,
  "i": 138,
  "\u0d15\u0d4d\u0d15": 139,
  "\u0d19\u0d4d\u0d19\u0d7e": 140,
  "\u0d41\u0d28\u0d4d\u0d28\u0d41": 141,
  "p": 142,
  "\u2581us": 143,
  "\u2581S": 144,
  "\u2581at": 145,
  "\u0d41\u0d15": 146,
  "\u2581\u0d05\u0d24\u0d4d": 147,
  "al": 148,
  "\u2581had": 149,
  "\u0d41\u0d15\u0d2f\u0d41\u0d02": 150,
  "\u0d41\u0d28\u0d4d\u0d28": 151,
  "\u2581which": 152,
  "o": 153,
  "\u2581\u0d2a\u0d31\u0d1e\u0d4d\u0d1e\u0d41": 154,
  "\u2581an": 155,
  "\u2581our": 156,
  "]": 157,
  "\u2581You": 158,
  "\u2581\u0d24": 159,
  "\u0d2f\u0d3f\u0d7d": 160,
  "b": 161,
  "\u2581so": 162,
  "in": 163,
  "\u2581\u0d05\u0d35\u0d30\u0d41\u0d1f\u0d46": 164,
  "\u2581there": 165,
  "n": 166,
  "\u2581no": 167,
  "\u2581It": 168,
  "\u2581\u0d28\u0d3f\u0d28\u0d4d\u0d31\u0d46": 169,
  "\u2581Lord": 170,
  "\u2581\u0d0e\u0d28\u0d4d\u0d28\u0d3e\u0d7d": 171,
  "\u2581out": 172,
  "\u2581What": 173,
  "\u0d3f\u0d1a\u0d4d\u0d1a\u0d24\u0d4d": 174,
  "\u2581\u0d38\u0d4d": 175,
  "\u0d38": 176,
  "\u0d42": 177,
  "3": 178,
  "\u2581\u0d36\u0d47\u0d16\u0d30": 179,
  "\u0d32": 180,
  "h": 181,
  "\u0d3e\u0d23\u0d4d": 182,
  "r": 183,
  "\u2581\u0d28\u0d3f\u0d19\u0d4d\u0d19\u0d33\u0d41\u0d1f\u0d46": 184,
  "\u2581if": 185,
  "\u2581\u0d0e\u0d28\u0d4d\u0d28\u0d41": 186,
  "\u2581\u0d05": 187,
  "5": 188,
  "an": 189,
  "\"": 190,
  "ly": 191,
  "\u2581up": 192,
  "\u0d2e\u0d3e\u0d2f": 193,
  "\u0d3e\u0d02": 194,
  "\u0d2f\u0d41\u0d1f\u0d46": 195,
  "\u0d15\u0d7e": 196,
  "4": 197,
  "\u2581\u0d0e\u0d28\u0d4d\u0d28": 198,
  "\u2581\u0d05\u0d35\u0d28\u0d4d\u0d31\u0d46": 199,
  "\u0d3f\u0d32\u0d4d\u0d32": 200,
  "I": 201,
  "\u0d23": 202,
  "or": 203,
  "\u0d3f\u0d30\u0d3f\u0d15\u0d4d\u0d15\u0d41\u0d28\u0d4d\u0d28\u0d41": 204,
  "\u0d24\u0d4d\u0d24\u0d3f\u0d28\u0d4d\u0d31\u0d46": 205,
  "g": 206,
  "S": 207,
  "u": 208,
  "\u2581\u0d24\u0d28\u0d4d\u0d31\u0d46": 209,
  "\u2581about": 210,
  "\u0d24\u0d4d\u0d24": 211,
  "th": 212,
  "\u2581would": 213,
  "\u2581\u0d24\u0d28\u0d4d\u0d28\u0d46": 214,
  "\u2581C": 215,
  "\u2581may": 216,
  "\u2581\u2018": 217,
  "\u2581been": 218,
  "\u0d24\u0d4d\u0d24\u0d46": 219,
  "\u0d31": 220,
  "\u2581\u0d24\u0d40\u0d7c\u0d1a\u0d4d\u0d1a\u0d2f\u0d3e\u0d2f\u0d41\u0d02": 221,
  "\u25811": 222,
  "\u2581They": 223,
  "\u2581know": 224,
  "\u0d2a": 225,
  "\u0d1f": 226,
  "\u2581\u0d35": 227,
  "E": 228,
  "C": 229,
  "\u0d2e\u0d3e\u0d2f\u0d3f": 230,
  "\u2581?": 231,
  "es": 232,
  "\u0d33": 233,
  "\u2581then": 234,
  "l": 235,
  "\u0d15\u0d4d\u0d15\u0d4d": 236,
  "\u2581her": 237,
  "\u2581But": 238,
  "O": 239,
  "\u2581did": 240,
  "\u2581Jesus": 241,
  "\u2581time": 242,
  "0": 243,
  "\u2581man": 244,
  "\u2581good": 245,
  "\u0d2f\u0d4d": 246,
  "\u0d24\u0d41": 247,
  "ar": 248,
  "\u2581\u0d05\u0d19\u0d4d\u0d19\u0d28\u0d46": 249,
  "\u2581B": 250,
  "\u2581say": 251,
  "\u2581\u0d28\u0d3f\u0d28\u0d4d\u0d28\u0d4d": 252,
  "\u2581come": 253,
  "\u0d2f\u0d46": 254,
  "k": 255,
  "\u0d2f\u0d4b": 256,
  "\u0d26": 257,
  "\u2581day": 258,
  "\u2581\u0d28": 259,
  "\u2581\u0d05\u0d35\u0d30\u0d46": 260,
  "\u258118": 261,
  "\u0d2f\u0d3e": 262,
  "\u2581\u0d28\u0d2e\u0d4d\u0d2e\u0d41\u0d1f\u0d46": 263,
  "f": 264,
  "\u2581life": 265,
  "\u0d3f\u0d28\u0d4d\u0d31\u0d46": 266,
  "\u0d3e\u0d7d": 267,
  "\u2581\u0d2e": 268,
  "\u2581Bible": 269,
  "\u0d41\u0d28\u0d4d\u0d28\u0d24\u0d4d": 270,
  "ll": 271,
  "\u0d28\u0d3f": 272,
  "\u0d3f\u0d1a\u0d4d\u0d1a\u0d41": 273,
  "\u0d41\u0d33\u0d4d\u0d33": 274,
  "\u0d35\u0d7c": 275,
  "\u2581earth": 276,
  "\u2581\u0d28\u0d3f\u0d19\u0d4d\u0d19\u0d7e\u0d15\u0d4d\u0d15\u0d4d": 277,
  "\u2581like": 278,
  "\u0d2a\u0d4d\u0d2a": 279,
  "A": 280,
  "\u2581\u0d2f\u0d39\u0d4b\u0d35": 281,
  "\u2581before": 282,
  "\u0d3e\u0d2f": 283,
  "\u2581unto": 284,
  "\u2581,": 285,
  "\u2581\u0d35\u0d3f": 286,
  "\u2581more": 287,
  "\u2581into": 288,
  "\u2581made": 289,
  "\u0d2e\u0d3e\u0d23\u0d4d": 290,
  "\u0d2f\u0d3e\u0d23\u0d4d": 291,
  "\u0d24\u0d3e": 292,
  "\u2581some": 293,
  "ri": 294,
  "\u2581see": 295,
  "\u0d15\u0d4d": 296,
  "\u0d40": 297,
  "=": 298,
  "\u2581\u0d0e\u0d28\u0d4d\u0d28\u0d4d": 299,
  "v": 300,
  "\u2581\u0d1e\u0d19\u0d4d\u0d19\u0d7e": 301,
  "\u0d36": 302,
  "\u2581\u0d05\u0d26\u0d4d\u0d26\u0d47\u0d39\u0d02": 303,
  "\u2581So": 304,
  "\u2581How": 305,
  "\u2581\u0d0e": 306,
  "\u2581\u0d2a": 307,
  "\u0d15\u0d4d\u0d15\u0d41": 308,
  "D": 309,
  "\u2581F": 310,
  "\u2581\u0d28\u0d3f\u0d19\u0d4d\u0d19\u0d33\u0d46": 311,
  "\u2581down": 312,
  "\u0d35\u0d3f": 313,
  "\u2581make": 314,
  "\u0d4a": 315,
  "\u2581way": 316,
  "\u0d23\u0d02": 317,
  "\u2581than": 318,
  "\u2581\u0d38": 319,
  "\u2581only": 320,
  "\u2581over": 321,
  "\u0d17": 322,
  "\u2581upon": 323,
  "\u2581things": 324,
  "\u2581\u0d05\u0d24\u0d41": 325,
  "\u2581\u0d1a\u0d46\u0d2f\u0d4d\u0d24\u0d41": 326,
  "\u0d30\u0d3f": 327,
  "\u0d1f\u0d4d\u0d1f": 328,
  "\u2581\u0d07\u0d24\u0d4d": 329,
  "\u2581should": 330,
  "\u2581\u0d2e\u0d3e": 331,
  "\u2581\u0d1a\u0d46\u0d2f\u0d4d\u0d24": 332,
  "\u2581\u0d0e\u0d28\u0d4d\u0d28\u0d46": 333,
  "it": 334,
  "R": 335,
  "\u2581\u0d05\u0d35\u0d7c\u0d15\u0d4d\u0d15\u0d4d": 336,
  "on": 337,
  "\u2581His": 338,
  "\u2581\u0d1a": 339,
  "\u2581\u0d15\u0d4d\u0d15\u0d41": 340,
  "\u2581she": 341,
  "\u2581This": 342,
  "\u2581other": 343,
  "\u0d3e\u0d2f\u0d3f": 344,
  "\u2581For": 345,
  "\u2581If": 346,
  "le": 347,
  "\u0d2e\u0d3e": 348,
  "\u0d31\u0d4d\u0d31": 349,
  "\u2581\u0d2f\u0d3f": 350,
  "\u2581how": 351,
  "\u2581go": 352,
  "\u2581When": 353,
  "\u2581\u0d05\u0d35\u0d28\u0d46": 354,
  "L": 355,
  "H": 356,
  "\u25812": 357,
  "\u2581any": 358,
  "\u2581T": 359,
  "\u0d24\u0d3f": 360,
  "--": 361,
  "ic": 362,
  "K": 363,
  "\u2581collect": 364,
  "\u0d2d": 365,
  "\u2581\u0d0e\u0d28\u0d3f\u0d15\u0d4d\u0d15\u0d4d": 366,
  "\u2581men": 367,
  "\u2581came": 368,
  "st": 369,
  "\u2581also": 370,
  "\u2581ye": 371,
  "\u0d28\u0d4d": 372,
  "\u0d48": 373,
  "\u2581M": 374,
  "w": 375,
  "\u0d39": 376,
  "\u0d1c": 377,
  "\u2581\u0d05\u0d2a\u0d4d\u0d2a\u0d4b\u0d7e": 378,
  "\u0d2f\u0d41\u0d33\u0d4d\u0d33": 379,
  "\u2581world": 380,
  "\u0d2e\u0d41\u0d33\u0d4d\u0d33": 381,
  "\u2581P": 382,
  "\u2581first": 383,
  "\u2581against": 384,
  "\u0d3f\u0d1a\u0d4d\u0d1a": 385,
  "\u2581after": 386,
  "\u2581O": 387,
  "il": 388,
  "\u0d1a\u0d4d\u0d1a": 389,
  "\u2581many": 390,
  "\u0d2e\u0d3f": 391,
  "\u25816": 392,
  "\u0d3e\u0d28": 393,
  "\u2581right": 394,
  "\u2581200": 395,
  "ro": 396,
  "\u2581take": 397,
  "\u2581That": 398,
  "\u0d7e": 399,
  "\u2581these": 400,
  "\u2581\u0d24\u0d41": 401,
  "\u2581even": 402,
  "\u2581give": 403,
  "\u0d32\u0d4d\u0d32": 404,
  "\u0d1a": 405,
  "\u258115": 406,
  "\u0d35\u0d3e": 407,
  "\u2581children": 408,
  "\u0d35\u0d30": 409,
  "\u2581Then": 410,
  "\u2581because": 411,
  "\u2581away": 412,
  "\u25819": 413,
  "\u0d38\u0d3f": 414,
  "\u2581\u0d05\u0d32\u0d4d\u0d32\u0d3e\u0d39\u0d41\u0d35\u0d3f\u0d28\u0d4d\u0d31\u0d46": 415,
  "\u25818": 416,
  "\u2581don": 417,
  "\u2581two": 418,
  "\u25817": 419,
  "\u2581\u0d2f\u0d39\u0d4b\u0d35\u0d2f\u0d41\u0d1f\u0d46": 420,
  "\u2581years": 421,
  "\u0d35\u0d7b": 422,
  "us": 423,
  "\u2581help": 424,
  "\u2581D": 425,
  "\u2581\u0d0e\u0d19\u0d4d\u0d19\u0d28\u0d46": 426,
  "to": 427,
  "\u0d28\u0d4d\u0d28": 428,
  "\u25815": 429,
  "\u0d37": 430,
  "en": 431,
  "\u2581\u0d28\u0d32\u0d4d\u0d32": 432,
  "\u2581\u0d28\u0d3f": 433,
  "\u2581\u0d28\u0d3f\u0d28\u0d4d\u0d28\u0d46": 434,
  "ch": 435,
  "\u0d3f\u0d2f": 436,
  "\u2581among": 437,
  "\u2581\u0d24\u0d19\u0d4d\u0d19\u0d33\u0d41\u0d1f\u0d46": 438,
  "\u2581thou": 439,
  "\u2581work": 440,
  "\u0d3f\u0d15\u0d4d\u0d15": 441,
  "\u2581believe": 442,
  "\u2581such": 443,
  "\u2581\u0d1a\u0d46\u0d2f\u0d4d": 444,
  "\u2581does": 445,
  "\u0d2f\u0d3f\u0d32\u0d46": 446,
  "\u0d3f\u0d32\u0d46": 447,
  "\u2581back": 448,
  "\u258110": 449,
  "\u2581\u0d2a\u0d15\u0d4d\u0d37\u0d47": 450,
  "\u0d2a\u0d4d\u0d2a\u0d46\u0d1f\u0d4d\u0d1f": 451,
  "el": 452,
  "\u0d35\u0d30\u0d46": 453,
  "\u2581love": 454,
  "\u2581here": 455,
  "\u2581\u0d2a\u0d4d\u0d30": 456,
  "T": 457,
  "\u0d24\u0d4d\u0d24\u0d3f": 458,
  "\u2581could": 459,
  "li": 460,
  "\u258112": 461,
  "\u2581\u0d05\u0d35": 462,
  "\u2581\u0d28\u0d3f\u0d28\u0d4d\u0d28\u0d41\u0d02": 463,
  "15": 464,
  "\u0d19\u0d4d\u0d19\u0d33\u0d41\u0d02": 465,
  "\u0d28\u0d4d\u0d31\u0d46": 466,
  "ve": 467,
  "\u258116": 468,
  "\u2581\u0d2a\u0d3f\u0d28\u0d4d\u0d28\u0d46": 469,
  "\u2581\u0d7d": 470,
  "la": 471,
  "\u0d24\u0d4d\u0d30": 472,
  "\u2581now": 473,
  "B": 474,
  "14": 475,
  "\u0d1f\u0d3f": 476,
  "ur": 477,
  "\u2581its": 478,
  "\u2581No": 479,
  "\u2581Do": 480,
  "\u0d19\u0d4d\u0d19\u0d33\u0d3f\u0d7d": 481,
  "\u0d19\u0d4d\u0d19": 482,
  "the": 483,
  "11": 484,
  "\u0d28\u0d4d\u0d24": 485,
  "J": 486,
  "\u0d7a": 487,
  "\u2581Him": 488,
  "\u2581\u0d1a\u0d3f\u0d32": 489,
  "\u2581whom": 490,
  "\u2581son": 491,
  "\u2581As": 492,
  "\u2581\u0d15\u0d4d\u0d30\u0d3f\u0d38\u0d4d": 493,
  "\u0d15\u0d4d\u0d15\u0d41\u0d02": 494,
  "\u2581sent": 495,
  "\u2581\u0d07": 496,
  "\u2581just": 497,
  "\u2581\u0d30": 498,
  "\u0d32\u0d3f": 499,
  "\u0d2e\u0d4b": 500,
  "\u258113": 501,
  "\u2581\u0d0e\u0d28\u0d4d\u0d24\u0d41": 502,
  "\u2581name": 503,
  "\u2581\u0d28\u0d3e": 504,
  "\u0d4d\u0d2f": 505,
  "\u2581\u0d26\u0d48\u0d35": 506,
  "un": 507,
  "\u0d35\u0d4d": 508,
  "\u2581\u0d0e\u0d32\u0d4d\u0d32\u0d3e": 509,
  "\u0d4e": 510,
  "\u2581All": 511,
  "\u2581Why": 512,
  "\u0d31\u0d4d\u0d31\u0d4d": 513,
  "\u2581am": 514,
  "\u0d24\u0d4d\u0d24\u0d3f\u0d28\u0d4d": 515,
  "\u2581let": 516,
  "\u0d3e\u0d15\u0d41\u0d28\u0d4d\u0d28\u0d41": 517,
  "\u258111": 518,
  "\u0d21": 519,
  "\u0d31\u0d3f": 520,
  "\u0d21\u0d4d": 521,
  "\u2581\u0d05\u0d24\u0d3f\u0d28\u0d4d\u0d31\u0d46": 522,
  "\u2581\u0d05\u0d35\u0d3f\u0d1f\u0d46": 523,
  "\u2581...": 524,
  "\u2581\u0d07\u0d35\u0d3f\u0d1f\u0d46": 525,
  "at": 526,
  "\u0d3e\u0d2f\u0d3f\u0d30\u0d41\u0d28\u0d4d\u0d28\u0d41": 527,
  "\u258117": 528,
  "ion": 529,
  "\u0d41\u0d15\u0d7e": 530,
  "\u2581\u0d35\u0d3e": 531,
  "\u2581nor": 532,
  "\u0d23\u0d4d\u0d1f": 533,
  "\u0d3f\u0d28\u0d46": 534,
  "\u2581\u0d28\u0d3f\u0d28\u0d15\u0d4d\u0d15\u0d4d": 535,
  "\u25813": 536,
  "\u2581Israel": 537,
  "\u0d30\u0d41\u0d24\u0d4d": 538,
  "\u2581\u0d15\u0d4a\u0d23\u0d4d\u0d1f\u0d4d": 539,
  "ation": 540,
  "N": 541,
  "ra": 542,
  "\u2581want": 543,
  "\u2581great": 544,
  "\u2581well": 545,
  "\u2581own": 546,
  "),": 547,
  "\u2581\u0d36": 548,
  "\u2581get": 549,
  "\u0d05": 550,
  "\u2581truth": 551,
  "\u0d28\u0d3e\u0d2f": 552,
  "\u2581)": 553,
  "\u0d2f\u0d3e\u0d2f\u0d3f": 554,
  "\u2581b": 555,
  "\u0d41\u0d1f\u0d46": 556,
  "/": 557,
  "\u0d41\u0d2e\u0d4d\u0d2a\u0d4b\u0d7e": 558,
  "\u2581land": 559,
  "\u2581\u0d2c\u0d48\u0d2c\u0d3f\u0d7e": 560,
  "\u2581\u0d1a\u0d46\u0d2f\u0d4d\u0d2f\u0d41\u0d02": 561,
  "\u2581\u0d35\u0d47\u0d23\u0d4d\u0d1f\u0d3f": 562,
  "\u2581\u0d1f\u0d46": 563,
  "\u2581\u0d2f\u0d47\u0d36\u0d41": 564,
  "\u2581most": 565,
  "\u25814": 566,
  "\u0d15\u0d33": 567,
  "\u2581\u0d35\u0d33\u0d30\u0d46": 568,
  "M": 569,
  "\u258114": 570,
  "\u0d28\u0d3e": 571,
  "\u0d2e\u0d47": 572,
  "\u0d2a\u0d4d\u0d2a\u0d4b\u0d7e": 573,
  "ia": 574,
  "\u2581\u0d05\u0d24\u0d3f\u0d28\u0d3e\u0d7d": 575,
  "?\"": 576,
  "\u2581:": 577,
  "\u0d27": 578,
  "\u0d24\u0d28\u0d4d\u0d28\u0d46": 579,
  "\u2581There": 580,
  "\u2581king": 581,
  "\u2581Our": 582,
  "\u2581To": 583,
  "\u0d3e\u0d24\u0d4d\u0d24": 584,
  "\u2581\u0d28\u0d2e\u0d41\u0d15\u0d4d\u0d15\u0d4d": 585,
  "\u2581My": 586,
  "\u2581/": 587,
  "\u2581need": 588,
  "P": 589,
  "\u2581\u0d2a\u0d31\u0d2f\u0d41\u0d28\u0d4d\u0d28\u0d41": 590,
  "\u2581house": 591,
  "\u2581\u0d07\u0d19\u0d4d\u0d19\u0d28\u0d46": 592,
  "\u2581every": 593,
  "ce": 594,
  "\u0d2e\u0d4d\u0d2a": 595,
  "\u0d2a\u0d4d\u0d30": 596,
  "\u2581\u0d2e\u0d41": 597,
  "\u2581\u0d1e\u0d19\u0d4d\u0d19\u0d33\u0d41\u0d1f\u0d46": 598,
  "\u2581\u0d2a\u0d31\u0d1e\u0d4d\u0d1e": 599,
  "\u0d25": 600,
  "\u0d19\u0d4d\u0d19\u0d33\u0d46": 601,
  "\u2581\u0d2a\u0d31\u0d2f\u0d41\u0d15": 602,
  "\u2581says": 603,
  "\u2581\u0d39": 604,
  "\u2581\u0d1a\u0d46\u0d2f\u0d4d\u0d2f\u0d41\u0d28\u0d4d\u0d28": 605,
  "\u2581course": 606,
  "is": 607,
  "\u2581others": 608,
  "\u2581\u0d2f": 609,
  "\u0d3f\u0d30\u0d41\u0d28\u0d4d\u0d28\u0d41": 610,
  "\u0d24\u0d4d\u0d24\u0d4d": 611,
  "\u2581\u0d24\u0d3f": 612,
  "\u2581\u0d26": 613,
  "\u2581put": 614,
  "\u0d41\u0d23\u0d4d\u0d1f\u0d4d": 615,
  "\u0d41\u0d35\u0d3e\u0d7b": 616,
  "x": 617,
  "\u2581U": 618,
  "\u2581thee": 619,
  "\u2581given": 620,
  "\u2581where": 621,
  "\u0d15\u0d4d\u0d37": 622,
  "\u0d1a\u0d4d\u0d1a\u0d41": 623,
  "\u2581LORD": 624,
  "\u0d41\u0d15\u0d2f\u0d3f\u0d32\u0d4d\u0d32": 625,
  "\u2581\u0d0f\u0d31\u0d4d\u0d31\u0d35\u0d41\u0d02": 626,
  "z": 627,
  "\u0d3f\u0d28\u0d4d": 628,
  "\u2581\u0d17": 629,
  "\u2581E": 630,
  "\u2581death": 631,
  "\u0d3f\u0d1f\u0d4d\u0d1f\u0d41\u0d23\u0d4d\u0d1f\u0d4d": 632,
  "\u0d24\u0d4d\u0d24\u0d3f\u0d32\u0d46": 633,
  "ul": 634,
  "\u2581another": 635,
  "\u2581fear": 636,
  "\u2581heart": 637,
  "\u0d30\u0d3e": 638,
  ").": 639,
  "\u2581place": 640,
  "\u2581must": 641,
  "\u0d24\u0d4d\u0d24\u0d3f\u0d28\u0d41": 642,
  "\u0d35\u0d47": 643,
  "\u2581\u0d35\u0d30": 644,
  "\u0d03": 645,
  "\u2581faith": 646,
  "\u2581thy": 647,
  "\u2581hand": 648,
  "\u0d43": 649,
  "\u2581\u0d26\u0d48\u0d35\u0d02": 650,
  "\u2581being": 651,
  "\u2581found": 652,
  "\u2581\u0d38\u0d3f": 653,
  "\u2581G": 654,
  "\u2581\u0d36\u0d3f\u0d15\u0d4d\u0d37": 655,
  "\u2581Who": 656,
  "\u2581think": 657,
  "\u0d32\u0d3e": 658,
  "\u0d3e\u0d28\u0d41\u0d02": 659,
  "eth": 660,
  "\u2581find": 661,
  "\u2581\u0d05\u0d24\u0d3f\u0d7d": 662,
  "\u0d30\u0d41": 663,
  "\u2581never": 664,
  "\u2581N": 665,
  "lo": 666,
  "\u2581!": 667,
  "\u2581year": 668,
  "\u2581Day": 669,
  "\u2581\u0d28\u0d4d\u0d28\u0d41": 670,
  "\u0d34": 671,
  "\u2581evil": 672,
  "\u2581\u0d32\u0d46": 673,
  "\u2581\u0d30\u0d3f": 674,
  "\u2581father": 675,
  "\u2581indeed": 676,
  "\u2581\u0d15\u0d48": 677,
  "\u0d28\u0d46": 678,
  "\u2581\u0d35\u0d34\u0d3f": 679,
  "\u0d24\u0d41\u0d02": 680,
  "\u2581old": 681,
  "\u2581c": 682,
  "\u0d3e\u0d24\u0d46": 683,
  "\u2581might": 684,
  "as": 685,
  "\u2581very": 686,
  "\u0d37\u0d4d": 687,
  "\u2581\u0d35\u0d30\u0d46": 688,
  "\u2581\u0d2f\u0d41": 689,
  "\u2581\u0d0e\u0d24\u0d4d\u0d30": 690,
  "ter": 691,
  "\u2581\u0d35\u0d32\u0d3f\u0d2f": 692,
  "\u2581\u0d05\u0d35\u0d7e": 693,
  "\u2581\u0d0e\u0d28\u0d3f\u0d15\u0d4d\u0d15\u0d41": 694,
  "\u0d28\u0d41\u0d02": 695,
  "\u258125": 696,
  "\u2581Say": 697,
  "\u2581de": 698,
  "\u2581family": 699,
  "\u2581\u0d13": 700,
  "\u0d15\u0d33\u0d41\u0d02": 701,
  "\u2581\u0d38\u0d3e": 702,
  "\u2581On": 703,
  "\u25812012": 704,
  "\u2581\u0d2c": 705,
  "\u258121": 706,
  "\u2581much": 707,
  "ad": 708,
  "\u0d3f\u0d30\u0d41\u0d28\u0d4d\u0d28": 709,
  "et": 710,
  "\u2581\u0d0e\u0d32\u0d4d\u0d32\u0d3e\u0d02": 711,
  "ers": 712,
  "\u2581Paul": 713,
  "\u2581long": 714,
  "\u2581bring": 715,
  "\u2581Witnesses": 716,
  "\u0d19\u0d4d\u0d19\u0d33\u0d41\u0d1f\u0d46": 717,
  "ive": 718,
  "\u2581\u0d2e\u0d46": 719,
  "\u2581\u0d1a\u0d46\u0d2f\u0d4d\u0d24\u0d24\u0d4d": 720,
  "\u258130": 721,
  "\u0d38\u0d3e": 722,
  "\u0d2c\u0d4d": 723,
  "\u0d28\u0d02": 724,
  "\u2581page": 725,
  "\u2581She": 726,
  "\u0d4a\u0d30\u0d41": 727,
  "\u0d16": 728,
  "\u2581Christ": 729,
  "\u2581\u0d07\u0d32\u0d4d\u0d32": 730,
  "\u2581R": 731,
  "\u2581become": 732,
  "\u2581through": 733,
  "\u2581\u0d15\u0d3e": 734,
  "ma": 735,
  "\u2581\u0d28\u0d4d\u0d28": 736,
  "\u2581true": 737,
  "\u0d15\u0d33\u0d46": 738,
  "\u2581un": 739,
  "U": 740,
  "\u0d24\u0d4d\u0d24\u0d41": 741,
  "\u2581\u0d09": 742,
  "ir": 743,
  "\u0d3f\u0d32\u0d41\u0d02": 744,
  "\u2581water": 745,
  "\u0d2a\u0d3f": 746,
  "\u25812010": 747,
  "13": 748,
  "\u2581\u0d15\u0d3e\u0d30\u0d4d\u0d2f\u0d02": 749,
  "\u2581\u0d35\u0d28\u0d4d\u0d28\u0d41": 750,
  "\u0d3e\u0d35": 751,
  "\u2581\u0d32": 752,
  "\u258124": 753,
  "\u2581\u0d28\u0d3f\u0d19\u0d4d\u0d19\u0d7e\u0d15\u0d4d\u0d15\u0d41": 754,
  "\u0d19\u0d4d\u0d15": 755,
  "\u2581\u0d30\u0d41": 756,
  "ent": 757,
  "\u0d2f\u0d3f": 758,
  "\u0d3f\u0d30\u0d3f\u0d15\u0d4d\u0d15\u0d41\u0d28\u0d4d\u0d28": 759,
  "\u2581went": 760,
  "\u0d2e\u0d41": 761,
  "\u2581themselves": 762,
  "\u2581Yes": 763,
  "\u2581between": 764,
  "\u2581\u0d15\u0d42\u0d1f\u0d41\u0d24\u0d7d": 765,
  "\u2581\u0d1a\u0d46\u0d2f\u0d4d\u0d2f\u0d41\u0d28\u0d4d\u0d28\u0d41": 766,
  "\u0d2f\u0d3e\u0d2f": 767,
  "\u0d35\u0d7c\u0d15\u0d4d\u0d15\u0d4d": 768,
  "\u2581set": 769,
  "\u2581part": 770,
  "\u2581\u0d07\u0d2a\u0d4d\u0d2a\u0d4b\u0d7e": 771,
  "\u0d31\u0d3f\u0d2f": 772,
  "\u0d3f\u0d1f": 773,
  "\u2581surely": 774,
  "\u2581days": 775,
  "\u2581\u0d2a\u0d3e": 776,
  "\u0d3e\u0d28\u0d41\u0d33\u0d4d\u0d33": 777,
  "\u2581p": 778,
  "\u2581saying": 779,
  "\u0d2c": 780,
  "\u2581\u0d2c\u0d3f": 781,
  "\u258122": 782,
  "\u2581\u0d2a\u0d3f": 783,
  "\u2581spirit": 784,
  "na": 785,
  "\u0d33\u0d3f": 786,
  "\u2581\u0d36\u0d47\u0d37\u0d02": 787,
  "\u2581\u0d2a\u0d32": 788,
  "\u2581gave": 789,
  "\u2581used": 790,
  "\u2581e": 791,
  "\u258123": 792,
  "\u2581going": 793,
  "\u2581took": 794,
  "\u2581words": 795,
  "\u0d15\u0d33\u0d3f\u0d7d": 796,
  "\u2581too": 797,
  "\u2581\u0d06\u0d23\u0d4d": 798,
  "10": 799,
  "\u2581\u0d2a\u0d4d\u0d30\u0d35\u0d7c\u0d24\u0d4d\u0d24\u0d3f\u0d15\u0d4d\u0d15": 800,
  "\u2581\u0d35\u0d28\u0d4d\u0d28": 801,
  "\u2581\u0d1a\u0d46\u0d2f\u0d4d\u0d2f\u0d41\u0d15": 802,
  "20": 803,
  "\u2581\u0d2a\u0d4b": 804,
  "\u2581\u0d30\u0d23\u0d4d\u0d1f\u0d41": 805,
  "\u0d33\u0d4d\u0d33": 806,
  "\u2581end": 807,
  "\u2581re": 808,
  "\u2581brought": 809,
  "\u2581called": 810,
  "\u2581\u0d09\u0d33\u0d4d\u0d33": 811,
  "\u2581\u0d1a\u0d46\u0d2f\u0d4d\u0d2f": 812,
  "\u2581David": 813,
  "\u0d1f\u0d4d\u0d1f\u0d46": 814,
  "\u2581keep": 815,
  "\u2581while": 816,
  "(": 817,
  "\u0d2e\u0d4d\u0d2e": 818,
  "\u2581heavens": 819,
  "\u2581\u0d2a\u0d4b\u0d32\u0d46": 820,
  "\u0d28\u0d4d\u0d28\u0d41": 821,
  "\u2581worship": 822,
  "\u2581word": 823,
  "\u2581\u0d2a\u0d3f\u0d28\u0d4d\u0d28\u0d40\u0d1f\u0d4d": 824,
  "\u2581\u0d2e\u0d3f": 825,
  "00": 826,
  "tion": 827,
  "\u2581new": 828,
  "\u2581\u0d05\u0d24\u0d3f\u0d28\u0d46": 829,
  "\u2581\u0d2a\u0d31\u0d2f\u0d41\u0d02": 830,
  "_": 831,
  "\u0d24\u0d3f\u0d7d": 832,
  "\u2581Yahweh": 833,
  "\u2581\u0d38\u0d15\u0d32": 834,
  "\u2581Is": 835,
  "\u0d3f\u0d15": 836,
  "\u2581each": 837,
  "\u2581until": 838,
  "\u258126": 839,
  "\u2581One": 840,
  "\u2581turn": 841,
  "\u2581\u0d07\u0d28\u0d3f": 842,
  "\u0d15\u0d30": 843,
  "\u2581\u0d15\u0d4a": 844,
  "est": 845,
  "\u2581ones": 846,
  "\u2581\u0d2e\u0d42\u0d32": 847,
  "\u0d2a\u0d4d": 848,
  "\u2581K": 849,
  "\u0d23\u0d3f": 850,
  "\u2581\u0d15\u0d3e\u0d30\u0d23\u0d02": 851,
  "\u0d28\u0d40": 852,
  "\u2581W": 853,
  "\u2581knowledge": 854,
  "\u0d28\u0d4d\u0d31": 855,
  "\u2581city": 856,
  "\u0d47\u0d23\u0d4d\u0d1f": 857,
  "\u2581\u0d05\u0d32\u0d4d\u0d32": 858,
  "\u0d26\u0d4d": 859,
  "\u2581three": 860,
  "\u2581hath": 861,
  "\u2581\u0d07\u0d24\u0d41": 862,
  "\u2581night": 863,
  "\u2581\u0d05\u0d24": 864,
  "\u2581\u0d38\u0d24\u0d4d\u0d2f\u0d02": 865,
  "\u0d31\u0d46": 866,
  "\u0d06": 867,
  "\u0d3f\u0d24": 868,
  "\u0d2f\u0d3f\u0d32\u0d4d\u0d32": 869,
  "W": 870,
  "\u2581off": 871,
  "\u0d24\u0d3e\u0d23\u0d4d": 872,
  "\u0d3f\u0d32": 873,
  "\u2581\u0d28\u0d3f\u0d19\u0d4d\u0d19\u0d33": 874,
  "\u0d36\u0d4d": 875,
  "\u0d1e\u0d4d\u0d1a": 876,
  "\u0d23\u0d4d\u0d23": 877,
  "\u2581\u0d30\u0d3e": 878,
  "\u0d3f\u0d28\u0d41": 879,
  "\u2581\u0d2a\u0d47\u0d1c\u0d3f\u0d32\u0d46": 880,
  "\u2581\u0d26\u0d3f\u0d35\u0d38\u0d02": 881,
  "\u0d38\u0d4d\u0d31\u0d4d\u0d31": 882,
  "\u2581Christian": 883,
  "vi": 884,
  "\u2581\u0d28\u0d2e\u0d4d\u0d2e\u0d7e": 885,
  "\u0d3e\u0d32\u0d41\u0d02": 886,
  "\u2581\u0d15\u0d4b": 887,
  "\u2581\u0d15\u0d3e\u0d23": 888,
  "\u0d3f\u0d1f\u0d4d\u0d1f\u0d3f\u0d32\u0d4d\u0d32": 889,
  "\u2581better": 890,
  "\u2581women": 891,
  "\u2581Let": 892,
  "\u2581except": 893,
  "\u2581done": 894,
  "\u2581\u0d1c": 895,
  "\u2581home": 896,
  "\u2581Moses": 897,
  "\u2581under": 898,
  "\u2581\u0d0f\u0d31\u0d46": 899,
  "\u0d24\u0d4d\u0d24\u0d3f\u0d32": 900,
  "im": 901,
  "\u2581Re": 902,
  "\u0d57": 903,
  "\u2581ask": 904,
  "\u258127": 905,
  "\u2581Your": 906,
  "\u2581again": 907,
  "\u2581Christians": 908,
  "\u0d2e\u0d46": 909,
  "\u2581without": 910,
  "\u2581\u0d2d": 911,
  "\u2581\u0d15\u0d41": 912,
  "ity": 913,
  "\u2581example": 914,
  "\u0d21\u0d3f": 915,
  "ate": 916,
  "\u2581\u0d24\u0d28\u0d4d\u0d28\u0d47": 917,
  "\u2581power": 918,
  "\u2581became": 919,
  "\u2581\u0d38\u0d24\u0d4d\u0d2f": 920,
  "able": 921,
  "\u2581\u0d24\u0d4d\u0d24\u0d3f": 922,
  "\u2581told": 923,
  "\u2581\u0d38\u0d46": 924,
  "\u0d26\u0d4d\u0d27": 925,
  "\u2581forth": 926,
  "\u2581tell": 927,
  "\u2581\u0d07\u0d1f": 928,
  "V": 929,
  "\u2581\u0d05\u0d24\u0d46": 930,
  "\u2581\u2013": 931,
  "ment": 932,
  "\u0d41\u0d2e\u0d3e\u0d2f\u0d3f\u0d30\u0d41\u0d28\u0d4d\u0d28\u0d41": 933,
  "\u0d24\u0d4d\u0d24\u0d3f\u0d32\u0d41\u0d02": 934,
  "\u2581Kingdom": 935,
  "\u0d2f\u0d3f\u0d32": 936,
  "\u0d33\u0d3f\u0d7d": 937,
  "\u2581L": 938,
  "\u2581left": 939,
  "\u2581why": 940,
  "\u0d38\u0d02": 941,
  "\u2581\u0d2e\u0d31\u0d4d\u0d31\u0d41": 942,
  "\u0d19\u0d4d\u0d19\u0d33": 943,
  "\u2581\u0d28\u0d4d\u0d31\u0d46": 944,
  "\u2581\u0d2e\u0d41\u0d24\u0d7d": 945,
  "\u2581same": 946,
  "\u0d0e": 947,
  "\u2581Those": 948,
  "\u2581wife": 949,
  "\u2581\u0d28\u0d3e\u0d2e": 950,
  "\u0d38\u0d4d\u0d38": 951,
  "\u0d3f\u0d30\u0d3f\u0d15\u0d4d\u0d15\u0d41\u0d28\u0d4d\u0d28\u0d24\u0d4d": 952,
  "\u0d07": 953,
  "\u2581\u0d28\u0d2e\u0d4d\u0d2e\u0d46": 954,
  "\u2581himself": 955,
  "\u0d15\u0d3e\u0d30": 956,
  "\u0d1f\u0d41": 957,
  "\u2581\u0d26\u0d48\u0d35\u0d24\u0d4d\u0d24\u0d3f\u0d28\u0d4d\u0d31\u0d46": 958,
  "\u2581ever": 959,
  "\u258128": 960,
  "\u2581\u0d2a\u0d4b\u0d2f\u0d3f": 961,
  "\u2581call": 962,
  "\u2581\u0d06\u0d7c\u0d15\u0d4d\u0d15": 963,
  "\u258129": 964,
  "\u0d41\u0d28\u0d4d\u0d28\u0d24\u0d3e\u0d23\u0d4d": 965,
  "\u2581mother": 966,
  "\u0d15\u0d4a\u0d23\u0d4d\u0d1f\u0d41": 967,
  "\u2581created": 968,
  "16": 969,
  "\u2581little": 970,
  "\u2581live": 971,
  "\u0d35\u0d28": 972,
  "\u2581\u0d0e\u0d28\u0d4d\u0d28\u0d3f\u0d1f\u0d4d\u0d1f\u0d4d": 973,
  "\u0d15\u0d4d\u0d15\u0d3e": 974,
  "\u0d2a\u0d4d\u0d2a\u0d46\u0d1f\u0d4d\u0d1f\u0d41": 975,
  "ness": 976,
  "\u2581Book": 977,
  "G": 978,
  "\u2581Me": 979,
  "\u2581\u0d35\u0d32\u0d4d\u0d32": 980,
  "\u2581\u0d28\u0d46": 981,
  "ig": 982,
  "\u2581\u0d2f\u0d3e": 983,
  "\u2581\u0d15\u0d3e\u0d30\u0d4d\u0d2f": 984,
  "\u0d15\u0d33\u0d41\u0d1f\u0d46": 985,
  "\u2581Indeed": 986,
  "me": 987,
  "\u2581together": 988,
  "\u2581By": 989,
  "\u2581\u0d2a\u0d41\u0d24\u0d3f\u0d2f": 990,
  "\u2581Now": 991,
  "\u2581show": 992,
  "\u2581\u0d28\u0d7d\u0d15\u0d3f\u0d2f": 993,
  "\u0d15\u0d4a\u0d23\u0d4d\u0d1f\u0d4d": 994,
  "\u2022": 995,
  "ator": 996,
  "ci": 997,
  "\u2581times": 998,
  "\u2581\u0d07\u0d24": 999,
  "\u2581wrong": 1000,
  "ol": 1001,
  "\u2581nothing": 1002,
  "\u2581thing": 1003,
  "\u2581\u0d1a\u0d3f\u0d24\u0d4d\u0d30\u0d02": 1004,
  "\u2581\u0d05\u0d1f\u0d41\u0d24\u0d4d\u0d24": 1005,
  "\u0d28\u0d41": 1006,
  "\u0d47\u0d23\u0d02": 1007,
  "F": 1008,
  "\u0d43\u0d24": 1009,
  "\u2581\u0d15\u0d47": 1010,
  "\u2581\u0d36\u0d30\u0d3f": 1011,
  "\u2581\u0d2f\u0d41\u0d02": 1012,
  "\u0d30\u0d3e\u0d2f": 1013,
  "\u2581\u0d06\u0d2f\u0d3f\u0d30\u0d41\u0d28\u0d4d\u0d28\u0d41": 1014,
  "\u2581punishment": 1015,
  "\u2581congregation": 1016,
  "\u2581\u0d24\u0d32": 1017,
  "\u2581Ma": 1018,
  "\u2581eyes": 1019,
  "\u2581though": 1020,
  "\u0d35\u0d30\u0d41\u0d02": 1021,
  "\u2581\u0d15\u0d23\u0d4d\u0d1f\u0d41": 1022,
  "\u2581\u0d24\u0d3e": 1023,
  "\u2581young": 1024,
  "\u2581\u0d13\u0d30\u0d4b": 1025,
  "\u2581\u0d05\u0d35\u0d30": 1026,
  "\u2581best": 1027,
  "\u2581\u0d1c\u0d4b\u0d32\u0d3f": 1028,
  "\u2581peace": 1029,
  "\u2581\u0d28\u0d3f\u0d28\u0d15\u0d4d\u0d15\u0d41": 1030,
  "ist": 1031,
  "\u0d30\u0d46": 1032,
  "\u2581\u0d05\u0d35\u0d30\u0d3f\u0d7d": 1033,
  "\u2581look": 1034,
  "\u2581got": 1035,
  "\u0d47\u0d15\u0d4d\u0d15\u0d3e\u0d02": 1036,
  "\u2581\u0d07\u0d28\u0d4d\u0d24\u0d4d\u0d2f": 1037,
  "\u2581doing": 1038,
  "\u2581saw": 1039,
  "\u2581\u0d15\u0d42\u0d1f\u0d46": 1040,
  "\u0d28\u0d4d\u0d26": 1041,
  "\u0d2b\u0d4d": 1042,
  "\u2581\u0d0f": 1043,
  "\u2581fire": 1044,
  "\u0d39\u0d4d": 1045,
  "\u2581\u0d24\u0d28\u0d4d\u0d28\u0d46\u0d2f\u0d3e\u0d23\u0d4d": 1046,
  "\u0d35\u0d30\u0d41\u0d1f\u0d46": 1047,
  "\u0d32\u0d4d\u0d32\u0d4b": 1048,
  "\u0d02\u0d17": 1049,
  "\u2581\u0d05\u0d1f\u0d41\u0d15\u0d4d\u0d15\u0d7d": 1050,
  "\u2581\u0d39\u0d3e": 1051,
  "\u0d15\u0d41": 1052,
  "\u2581\u0d38\u0d41": 1053,
  "\u2581\u0d0e\u0d28\u0d4d\u0d24\u0d4d": 1054,
  "\u0d26\u0d3f": 1055,
  "\u2581parents": 1056,
  "\u2581hearts": 1057,
  "\u2581\u0d15\u0d3e\u0d30\u0d4d\u0d2f\u0d24\u0d4d\u0d24\u0d3f\u0d7d": 1058,
  "\u0d39\u0d3f": 1059,
  "\u2581\u0d05\u0d32\u0d4d\u0d32\u0d46\u0d19\u0d4d\u0d15\u0d3f\u0d7d": 1060,
  "\u2581\u0d15\u0d42\u0d1f\u0d3f": 1061,
  "\u2581clear": 1062,
  "\u2581\u0d35\u0d46": 1063,
  "\u2581believers": 1064,
  "\u2581\u0d2e\u0d47\u0d7d": 1065,
  "\u0d28\u0d4d\u0d2e\u0d3e\u0d7c": 1066,
  "\u2581something": 1067,
  "\u2581leave": 1068,
  "The": 1069,
  "\u2581\u0d0e\u0d28\u0d4d\u0d24\u0d3e\u0d23\u0d4d": 1070,
  "\u2581\u0d32\u0d4b\u0d15": 1071,
  "\u0d17\u0d4d": 1072,
  "\u0d26\u0d3e": 1073,
  "\u2581\u0d28\u0d3f\u0d28\u0d4d\u0d28\u0d41": 1074,
  "\u2581still": 1075,
  "\u2581May": 1076,
  "\u2581sons": 1077,
  "\u0d3f\u0d15\u0d4d\u0d15\u0d41\u0d28\u0d4d\u0d28": 1078,
  "\u0d32\u0d4d\u0d32\u0d3e\u0d24\u0d46": 1079,
  "\u0d3f\u0d1f\u0d4d\u0d1f\u0d41": 1080,
  "\u2581At": 1081,
  "am": 1082,
  "\u2581\u0d2f\u0d3e\u0d24\u0d4a\u0d30\u0d41": 1083,
  "\u2581brother": 1084,
  "de": 1085,
  "\u2581\u0d35\u0d47\u0d23\u0d4d\u0d1f": 1086,
  "\u2581dead": 1087,
  "\u2581\u0d2e\u0d3e\u0d24\u0d4d\u0d30\u0d02": 1088,
  "\u2581\u0d2a\u0d4b\u0d15": 1089,
  "\u2581person": 1090,
  "\u2581\u0d1f": 1091,
  "\u2581\u0d2e\u0d32": 1092,
  "\u0d32\u0d46": 1093,
  "\u2581hear": 1094,
  "\u2581use": 1095,
  "\u0d24\u0d4d\u0d24\u0d4b\u0d1f\u0d46": 1096,
  "\u0d1e\u0d4d\u0d1e": 1097,
  "\u2581full": 1098,
  "\u0d20": 1099,
  "\u2581eat": 1100,
  "\u2581\u0d12": 1101,
  "\u2581book": 1102,
  "\u0d4c": 1103,
  "ut": 1104,
  "\u2581\u0d1e\u0d3e\u0d28": 1105,
  "\u2581\u0d1e\u0d19\u0d4d\u0d19\u0d33\u0d46": 1106,
  "\u0d31\u0d4d\u0d31\u0d3f": 1107,
  "\u2581today": 1108,
  "\u2581follow": 1109,
  "\u2581\u0d38\u0d7c": 1110,
  "\u2581cause": 1111,
  "\u0d15\u0d4d\u0d15\u0d4b": 1112,
  "\u0d15\u0d4d\u0d15\u0d3f": 1113,
  "\u0d28\u0d47": 1114,
  "\u2581light": 1115,
  "\u2581spiritual": 1116,
  "\u2581\u0d2a\u0d31\u0d2f": 1117,
  "\u2581\u0d15\u0d3e\u0d30\u0d4d\u0d2f\u0d19\u0d4d\u0d19\u0d7e": 1118,
  "\u0d2e\u0d41\u0d23\u0d4d\u0d1f\u0d4d": 1119,
  "\u0d24\u0d3e\u0d2f\u0d3f": 1120,
  "\u0d15\u0d4d\u0d15\u0d3e\u0d7c": 1121,
  "\u0d3e\u0d23\u0d4b": 1122,
  "\u2581\u0d2a\u0d41": 1123,
  "\u2581\u0d15\u0d23\u0d4d\u0d1f": 1124,
  "\u2581\u0d05\u0d32\u0d4d\u0d32\u0d3e\u0d39\u0d41\u0d35\u0d46": 1125,
  "\u2581both": 1126,
  "\u2581\u0d1c\u0d28": 1127,
  "\u0d2e\u0d3e\u0d2f\u0d3f\u0d30\u0d41\u0d28\u0d4d\u0d28\u0d41": 1128,
  "\u0d46\u0d19\u0d4d\u0d15\u0d3f\u0d32\u0d41\u0d02": 1129,
  "\u2581\u0d28\u0d3f\u0d28\u0d4d\u0d28\u0d41\u0d33\u0d4d\u0d33": 1130,
  "\u2581feel": 1131,
  "\u2581\u0d0e\u0d28\u0d4d\u0d24\u0d3e": 1132,
  "\u2581\u0d2e\u0d41\u0d2e\u0d4d\u0d2a\u0d4d": 1133,
  "\u2581Or": 1134,
  "\u2581servants": 1135,
  "\u0d38\u0d4d\u0d31\u0d4d\u0d31\u0d4d": 1136,
  "\u2581signs": 1137,
  "po": 1138,
  "\u2581\u0d15\u0d3e\u0d32": 1139,
  "\u2581began": 1140,
  "\u2581heard": 1141,
  "up": 1142,
  "\u2581Con": 1143,
  "\u2581means": 1144,
  "\u0d7c\u0d24\u0d4d\u0d24": 1145,
  "\u2581\u0d2a\u0d47\u0d30\u0d3f\u0d7d": 1146,
  "\u2581yet": 1147,
  "\u0d4d\u0d2f\u0d02": 1148,
  "\u2581\u0d05\u0d35\u0d28": 1149,
  "\u0d41\u0d28\u0d4d\u0d28\u0d24\u0d41": 1150,
  "\u2581able": 1151,
  "\u2581Don": 1152,
  "\u258131": 1153,
  "\u2581face": 1154,
  "\u2581hands": 1155,
  "\u2581\u0d1a\u0d46\u0d2f\u0d4d\u0d2f\u0d3e\u0d7b": 1156,
  "\u0d28\u0d3e\u0d2f\u0d3f": 1157,
  "\u2581\u0d15\u0d47\u0d7e\u0d15\u0d4d\u0d15": 1158,
  "\u0d31\u0d41": 1159,
  "\u2581mercy": 1160,
  "\u2581From": 1161,
  "\u2581\u0d05\u0d26\u0d4d\u0d26\u0d47\u0d39\u0d24\u0d4d\u0d24\u0d3f\u0d28\u0d4d\u0d31\u0d46": 1162,
  "\u0d2a\u0d4b\u0d32\u0d46": 1163,
  "\u0d2e\u0d3f\u0d32\u0d4d\u0d32": 1164,
  "\u0d15\u0d3e": 1165,
  "\u2581speak": 1166,
  "\u2581knows": 1167,
  "j": 1168,
  "\u0d3f\u0d32\u0d47\u0d15\u0d4d\u0d15\u0d4d": 1169,
  "\u2581understand": 1170,
  "\u2581\u0d32\u0d3e": 1171,
  "man": 1172,
  "\u0d1c\u0d3f": 1173,
  "\u0d3e\u0d2f\u0d3f\u0d30\u0d3f\u0d15\u0d4d\u0d15\u0d41\u0d02": 1174,
  "\u0d41\u0d2e\u0d4b": 1175,
  "\u2581\u0d28\u0d47\u0d30\u0d46": 1176,
  "\u2581\u0d24\u0d3e\u0d7b": 1177,
  "\u2581\u0d31\u0d3f": 1178,
  "\u2581\u0d2a\u0d31\u0d2f\u0d41\u0d28\u0d4d\u0d28": 1179,
  "\u2581\u0d12\u0d28\u0d4d\u0d28\u0d41\u0d02": 1180,
  "\u2581woman": 1181,
  "\u2581\u0d2e\u0d39\u0d3e": 1182,
  "\u2581\u0d38\u0d02": 1183,
  "\u2581\u0d2e\u0d31\u0d4d\u0d31\u0d4a\u0d30\u0d41": 1184,
  "\u2581Be": 1185,
  "\u2581Come": 1186,
  "\u2581sin": 1187,
  "\u2581neither": 1188,
  "\u2581\u0d2d\u0d42\u0d2e\u0d3f\u0d2f\u0d3f\u0d7d": 1189,
  "\u2581Satan": 1190,
  "\u2581didn": 1191,
  "\u0d35\u0d41": 1192,
  "ne": 1193,
  "mp": 1194,
  "\u2581brothers": 1195,
  "\u2581heaven": 1196,
  "\u2581human": 1197,
  "\u2581After": 1198,
  "\u2581corner": 1199,
  "\u2581pass": 1200,
  "\u2581return": 1201,
  "\u0d24\u0d3f\u0d28\u0d46": 1202,
  "\u2581certainly": 1203,
  "\u0d4b\u0d1f\u0d4d": 1204,
  "\u2581\u0d2e\u0d4b": 1205,
  "\u2581deeds": 1206,
  "min": 1207,
  "\u0d28\u0d4b": 1208,
  "\u2581\u0d1f\u0d41": 1209,
  "\u0d24\u0d3f\u0d28\u0d4d\u0d31\u0d46": 1210,
  "age": 1211,
  "We": 1212,
  "\u0d1f\u0d4d\u0d1f\u0d4d": 1213,
  "\u0d41\u0d15\u0d2f\u0d4b": 1214,
  "\u2581order": 1215,
  "ry": 1216,
  "\u2581\u0d30\u0d3e\u0d1c\u0d4d\u0d2f": 1217,
  "\u2581\u0d28\u0d7d\u0d15\u0d3f": 1218,
  "\u2581John": 1219,
  "\u2581number": 1220,
  "\u2581\u0d06\u0d26\u0d4d\u0d2f": 1221,
  "\u2581\u0d28\u0d28\u0d4d\u0d26\u0d3f": 1222,
  "\u2581\u0d28\u0d3f\u0d2f\u0d2e": 1223,
  "\u0d24\u0d4d\u0d2f": 1224,
  "\u2581\u0d27": 1225,
  "\u2581righteous": 1226,
  "\u0d1f\u0d4d\u0d1f\u0d3f": 1227,
  "\u2581child": 1228,
  "\u2581\u0d2e\u0d3e\u0d24\u0d4d\u0d30\u0d2e\u0d3e\u0d23\u0d4d": 1229,
  "\u2581anything": 1230,
  "ous": 1231,
  "\u2581\u0d05\u0d2f\u0d3e\u0d7e": 1232,
  "of": 1233,
  "\u2581hope": 1234,
  "\u0d41\u0d28\u0d4d\u0d28\u0d24\u0d3f\u0d7d": 1235,
  "\u2581;": 1236,
  "\u0d2f\u0d7c": 1237,
  "\u0d2f\u0d41": 1238,
  "ha": 1239,
  "\u2581read": 1240,
  "\u2581\u0d28\u0d2e\u0d41\u0d15\u0d4d\u0d15\u0d41": 1241,
  "\u2581\u0d28\u0d7d\u0d15": 1242,
  "\u0d3f\u0d15\u0d7e": 1243,
  "\u2581Picture": 1244,
  "ant": 1245,
  "\u2581\u0d05\u0d35\u0d7c\u0d15\u0d4d\u0d15\u0d41": 1246,
  "\u25811,": 1247,
  "\u0d2f\u0d3e\u0d2f\u0d3f\u0d30\u0d41\u0d28\u0d4d\u0d28\u0d41": 1248,
  "\u0d2f\u0d42": 1249,
  "\u0d30\u0d4b": 1250,
  "\u2581These": 1251,
  "\u2581\u0d24\u0d46": 1252,
  "\u2581seen": 1253,
  "\u0d7c\u0d2e\u0d4d\u0d2e": 1254,
  "\u0d17\u0d4d\u0d30": 1255,
  "\u2581con": 1256,
  "\u0d15\u0d02": 1257,
  "\u2581H": 1258,
  "\u2581\u0d05\u0d31\u0d3f\u0d2f": 1259,
  "\u0d41\u0d2e\u0d3e\u0d2f\u0d3f": 1260,
  "ure": 1261,
  "\u2581\u0d05\u0d24\u0d41\u0d15\u0d4a\u0d23\u0d4d\u0d1f\u0d4d": 1262,
  "\u2581prayer": 1263,
  "\u2581Word": 1264,
  "\u2581Go": 1265,
  "\u2581soul": 1266,
  "\u2581w": 1267,
  "\u2581\u0d2a\u0d42": 1268,
  "pp": 1269,
  "\u2581\u0d0e\u0d28\u0d4d\u0d28\u0d41\u0d02": 1270,
  "\u0d2e\u0d3e\u0d7c": 1271,
  "\u2581\u0d15\u0d34\u0d3f\u0d1e\u0d4d\u0d1e": 1272,
  "\u2581\u0d2a\u0d30\u0d3f": 1273,
  "\u2581\u0d05\u0d2e\u0d4d\u0d2e": 1274,
  "\u0d24\u0d3f\u0d28\u0d4d": 1275,
  "\u2581\u0d15\u0d42\u0d1f\u0d4d\u0d1f": 1276,
  "\u0d35\u0d3e\u0d26": 1277,
  "\u2581\u0d15\u0d30": 1278,
  "ary": 1279,
  "\u2581remember": 1280,
  "\u0d2b": 1281,
  "\u0d24\u0d4b": 1282,
  "\u2581news": 1283,
  "\u2581therefore": 1284,
  "\u0d2c\u0d7c": 1285,
  "\u2581m": 1286,
  "\u2581\u0d31": 1287,
  "ho": 1288,
  "\u2581\u0d35\u0d40\u0d23\u0d4d\u0d1f\u0d41\u0d02": 1289,
  "\u2581century": 1290,
  "ba": 1291,
  "\u0d41\u0d15\u0d2f\u0d3e\u0d23\u0d46\u0d19\u0d4d\u0d15\u0d3f\u0d7d": 1292,
  "\u2581\u0d38\u0d4d\u0d35": 1293,
  "\u2581Are": 1294,
  "\u2581mind": 1295,
  "\u0d2f\u0d4d\u0d15\u0d4d\u0d15": 1296,
  "\u2581\u0d2f\u0d4b": 1297,
  "\u2581last": 1298,
  "\u0d2c\u0d3f": 1299,
  "\u2581four": 1300,
  "\u0d41\u0d28\u0d4d\u0d28\u0d3f\u0d32\u0d4d\u0d32": 1301,
  "\u2581\u0d05\u0d32\u0d4d\u0d32\u0d3e\u0d39\u0d41\u0d35\u0d3f\u0d28\u0d4d": 1302,
  "\u0d2a\u0d4d\u0d2a\u0d46\u0d1f\u0d41\u0d28\u0d4d\u0d28": 1303,
  "\u2581Some": 1304,
  "\u2581original": 1305,
  "\u2581known": 1306,
  "se": 1307,
  "17": 1308,
  "\u2581\u0d38\u0d2e": 1309,
  "\u2581always": 1310,
  "\u2581Father": 1311,
  "\u2581money": 1312,
  "\u2581\u0d2a\u0d30": 1313,
  "\u2581mankind": 1314,
  "\u2581\u0d2a\u0d15\u0d4d\u0d37\u0d02": 1315,
  "\u2581\u0d2e\u0d30\u0d23": 1316,
  "sh": 1317,
  "\u0d36\u0d47\u0d37\u0d02": 1318,
  "\u2581\u0d35\u0d3f\u0d32": 1319,
  "\u0d2f\u0d02": 1320,
  "\u2581Messenger": 1321,
  "\u0d2f\u0d41\u0d23\u0d4d\u0d1f\u0d4d": 1322,
  "\u2581asked": 1323,
  "\u2581\u0d2a\u0d4a": 1324,
  "\u2581\u0d07\u0d35": 1325,
  "\u0d2f\u0d4d\u0d15\u0d4d\u0d15\u0d4d": 1326,
  "\u0d41\u0d28\u0d4d\u0d28\u0d24\u0d41\u0d02": 1327,
  "\u2581\u0d0f\u0d24\u0d41": 1328,
  "\u2581according": 1329,
  "\u0d18": 1330,
  "\u2581\u0d1a\u0d3e": 1331,
  "\u2581\u0d28\u0d3f\u0d28\u0d4d\u0d28": 1332,
  "co": 1333,
  "\u2581\u0d05\u0d35\u0d30\u0d4b\u0d1f\u0d4d": 1334,
  "\u0d47\u0d23\u0d4d\u0d1f\u0d24\u0d3f\u0d28\u0d4d\u0d28\u0d41": 1335,
  "\u2581die": 1336,
  "\u2581\u0d2a\u0d4b\u0d2f": 1337,
  "\u0d2e\u0d32\u0d4d\u0d32": 1338,
  "\u2581\u0d15\u0d34\u0d3f\u0d2f\u0d41\u0d02": 1339,
  "\u2581\u0d2a\u0d4d\u0d30\u0d24\u0d3f\u0d2b\u0d32\u0d02": 1340,
  "\u0d35\u0d46": 1341,
  "\u0d46\u0d2f\u0d41\u0d02": 1342,
  "\u2581Where": 1343,
  "\u0d3f\u0d1f\u0d4d\u0d1f\u0d41\u0d33\u0d4d\u0d33": 1344,
  "cu": 1345,
  "\u2581\u0d2a\u0d4d\u0d30\u0d24\u0d3f": 1346,
  "\u0d15\u0d4d\u0d15\u0d3e\u0d30": 1347,
  "ies": 1348,
  "ian": 1349,
  "\u2014": 1350,
  "\u0d1e\u0d4d\u0d1e\u0d41": 1351,
  "\u2581\u0d0e\u0d28\u0d4d\u0d28\u0d3f\u0d35": 1352,
  "\u0d2e\u0d47\u0d7d": 1353,
  "\u2581reward": 1354,
  "\u2581taken": 1355,
  "\u2581\u0d2e\u0d24\u0d3f": 1356,
  "\u0d32\u0d4b": 1357,
  "\u2581study": 1358,
  "\u2581send": 1359,
  "\u0d28\u0d4d\u0d31\u0d4d": 1360,
  "\u0d46\u0d28\u0d4d\u0d28": 1361,
  "\u2581\u0d36\u0d15\u0d4d\u0d24\u0d3f": 1362,
  "\u2581\u0d06\u0d7c": 1363,
  "\u0d2a\u0d4d\u0d2a\u0d41": 1364,
  "\u2581high": 1365,
  "\u0d24\u0d4d\u0d24\u0d28\u0d4d\u0d28\u0d46": 1366,
  "\u2581thought": 1367,
  "\u2581United": 1368,
  "\u2581\u0d32\u0d3f": 1369,
  "\u2581Most": 1370,
  "ck": 1371,
  "\u2581Lo": 1372,
  "\u0d28\u0d4d\u0d28\u0d4d": 1373,
  "\u0d24\u0d4d\u0d24\u0d3f\u0d28\u0d4d\u0d28\u0d41": 1374,
  "\u0d37\u0d4d\u0d1f": 1375,
  "\u2581Ra": 1376,
  "\u2581law": 1377,
  "\u0d38\u0d4d\u0d25": 1378,
  "\u2581\u0d2a\u0d47\u0d7c": 1379,
  "\u0d39\u0d3e": 1380,
  "\u2581\u0d1a\u0d46": 1381,
  "\u25812011": 1382,
  "\u2581De": 1383,
  "\u25813:": 1384,
  "\u2581food": 1385,
  "\u0d24\u0d47": 1386,
  "\u2581co": 1387,
  "!\"": 1388,
  "\u0d46\u0d28\u0d4d\u0d28\u0d4d": 1389,
  "\u2581\u0d38\u0d2e\u0d2f\u0d02": 1390,
  "\u2581\u0d21\u0d3f": 1391,
  "\u0d3f\u0d1f\u0d4d\u0d1f\u0d4d": 1392,
  "\u2581\u0d05\u0d24\u0d47": 1393,
  "\u2581blood": 1394,
  "\u2581matter": 1395,
  "\u2581around": 1396,
  "\u2581\u0d28\u0d4d\u0d28\u0d24\u0d4d": 1397,
  "\u2581\u0d0e\u0d28\u0d4d\u0d24\u0d41\u0d15\u0d4a\u0d23\u0d4d\u0d1f\u0d4d": 1398,
  "\u2581free": 1399,
  "\u2581_": 1400,
  "\u2581Can": 1401,
  "\u2581New": 1402,
  "\u2581\u0d15\u0d47\u0d1f\u0d4d\u0d1f": 1403,
  "\u2581comes": 1404,
  "\u2581\u0d15\u0d4d\u0d15": 1405,
  "\u2581\u0d24\u0d40\u0d2f": 1406,
  "\u2581\u0d35\u0d4d\u0d2f\u0d15\u0d4d\u0d24\u0d3f": 1407,
  "\u2581\u0d0e\u0d19\u0d4d\u0d15\u0d3f\u0d32\u0d41\u0d02": 1408,
  "\u2581apostle": 1409,
  "\u2581Thus": 1410,
  "\u2581\u0d28\u0d1f\u0d28\u0d4d\u0d28": 1411,
  "\u2581\u0d28\u0d3f\u0d32": 1412,
  "ine": 1413,
  "\u2581\u0d09\u0d24\u0d4d\u0d24\u0d30\u0d02": 1414,
  "Y": 1415,
  "and": 1416,
  "\u2581war": 1417,
  "\u2581far": 1418,
  "\u0d24\u0d30": 1419,
  "\u2581later": 1420,
  "\u2581head": 1421,
  "\u2581With": 1422,
  "\u2581\u0d05\u0d1f\u0d41\u0d24\u0d4d\u0d24\u0d4d": 1423,
  "\u0d4b\u0d1f\u0d41": 1424,
  "\u2581\u0d0e\u0d35\u0d3f\u0d1f\u0d46": 1425,
  "\u0d2d\u0d3e\u0d37": 1426,
  "\u2581seek": 1427,
  "\u2581\u0d07\u0d28\u0d4d\u0d28\u0d4d": 1428,
  "\u2581\u0d1e\u0d19\u0d4d\u0d19\u0d7e\u0d15\u0d4d\u0d15\u0d4d": 1429,
  "\u0d2f\u0d3f\u0d32\u0d41\u0d02": 1430,
  "\u2581really": 1431,
  "\u2581Pa": 1432,
  "\u2581whose": 1433,
  "our": 1434,
  "te": 1435,
  "\u0d23\u0d4d\u0d1f\u0d41": 1436,
  "\u2581\u0d2a\u0d46": 1437,
  "\u2581living": 1438,
  "\u2581learn": 1439,
  "\u0d2a\u0d4d\u0d2a\u0d46\u0d1f": 1440,
  "\u2581revealed": 1441,
  "\u0d26\u0d4d\u0d2f": 1442,
  "\u2581\u0d09\u0d26\u0d4d\u0d26\u0d47\u0d36\u0d3f\u0d15\u0d4d\u0d15\u0d41\u0d28\u0d4d\u0d28": 1443,
  "\u2581\u0d24\u0d40": 1444,
  "\u2581Jerusalem": 1445,
  "\u2581holy": 1446,
  "\u2581\u0d06\u0d33\u0d41\u0d15\u0d7e": 1447,
  "\u2581\u0d15\u0d4d\u0d15\u0d3e": 1448,
  "\u2581\u0d2a\u0d15\u0d30\u0d02": 1449,
  "\u2581cannot": 1450,
  "\u2581\u0d39\u0d3f": 1451,
  "\u2581\u0d1a\u0d4d\u0d1a\u0d41": 1452,
  "em": 1453,
  "\u0d24\u0d3f\u0d28\u0d3e\u0d7d": 1454,
  "\u2581\u0d09\u0d23\u0d4d\u0d1f\u0d4d": 1455,
  "\u2581\u0d35\u0d4d\u0d2f\u0d15\u0d4d\u0d24\u0d2e\u0d3e\u0d2f": 1456,
  "\u2581\u0d15\u0d4d\u0d15\u0d3e\u0d7b": 1457,
  "\u2581\u0d1a\u0d3f\u0d24\u0d4d\u0d30": 1458,
  "\u0d2f\u0d3e\u0d7d": 1459,
  "\u2581\u0d15\u0d4a\u0d32\u0d4d\u0d32": 1460,
  "\u2581\u0d2a\u0d31": 1461,
  "201": 1462,
  "\u2581\u0d35\u0d47": 1463,
  "\u2581serve": 1464,
  "\u2581turned": 1465,
  "\u2581\u0d2a\u0d31\u0d2f\u0d41\u0d28\u0d4d\u0d28\u0d24\u0d4d": 1466,
  "\u2581Na": 1467,
  "\u0d46\u0d19\u0d4d\u0d15\u0d3f\u0d7d": 1468,
  "\u2581\u0d1a\u0d46\u0d2f\u0d4d\u0d2f\u0d41\u0d28\u0d4d\u0d28\u0d24\u0d4d": 1469,
  "\u2581\u0d1a\u0d46\u0d28\u0d4d\u0d28\u0d41": 1470,
  "\u2581\u0d2c\u0d3e": 1471,
  "\u0d1c\u0d28": 1472,
  "\u0d2a\u0d4d\u0d2a\u0d4d": 1473,
  "\u0d2a\u0d4d\u0d2a\u0d3e": 1474,
  "\u2581sea": 1475,
  "\u0d34\u0d3f": 1476,
  "\u2581everything": 1477,
  "\u2581\u0d12\u0d28\u0d4d\u0d28": 1478,
  "\u2581\u0d24\u0d30": 1479,
  "\u0d30\u0d02": 1480,
  "\u2581important": 1481,
  "\u2581Even": 1482,
  "\u2581\u0d1f\u0d4d\u0d30": 1483,
  "\u2581sign": 1484,
  "01": 1485,
  "\u2581during": 1486,
  "\u0d26\u0d4d\u0d30": 1487,
  "\u2581feet": 1488,
  "\u2581\u0d1a\u0d4b\u0d26\u0d3f\u0d1a\u0d4d\u0d1a\u0d41": 1489,
  "\u2581near": 1490,
  "ph": 1491,
  "\u0d15\u0d4d\u0d15\u0d3e\u0d7e": 1492,
  "\u0d3f\u0d28\u0d4d\u0d28\u0d41": 1493,
  "\u2581\u0d28\u0d4b\u0d15\u0d4d\u0d15": 1494,
  "\u2581\u0d0e\u0d19\u0d4d\u0d15\u0d3f\u0d7d": 1495,
  "\u2581\u0d05\u0d24\u0d3f": 1496,
  "\u0d2a\u0d4d\u0d2a\u0d3f\u0d15\u0d4d\u0d15": 1497,
  "\u2581won": 1498,
  "\u0d2f\u0d47": 1499,
  "\u2581\u0d21": 1500,
  "\u2581Not": 1501,
  "ated": 1502,
  "\u2581please": 1503,
  "\u2581\u0d05\u0d35\u0d33\u0d41\u0d1f\u0d46": 1504,
  "\u0d35\u0d28\u0d46": 1505,
  "\u2581\u0d32\u0d41\u0d02": 1506,
  "\u2581\u0d05\u0d24\u0d3f\u0d28\u0d41": 1507,
  "\u2581therein": 1508,
  "\u2581wrote": 1509,
  "\u2581*": 1510,
  "\u2581few": 1511,
  "\u2581An": 1512,
  "ish": 1513,
  "\u2581faithful": 1514,
  "\u0d24\u0d4d\u0d24\u0d3e\u0d7d": 1515,
  "\u2581\u0d15\u0d3e\u0d23\u0d3f\u0d15\u0d4d\u0d15": 1516,
  "\u2581However": 1517,
  "\u0d41\u0d15\u0d2f\u0d3e\u0d23\u0d4d": 1518,
  "mo": 1519,
  "\u2581angels": 1520,
  "\u0d32\u0d4d\u0d2a": 1521,
  "\u2581\u0d28\u0d40\u0d24\u0d3f": 1522,
  "\u25812013": 1523,
  "\u25812:": 1524,
  "\u2581\u0d2d\u0d42\u0d2e\u0d3f": 1525,
  "\u2581\u0d05\u0d35\u0d28\u0d4d\u0d28\u0d41": 1526,
  "\u2581sure": 1527,
  "\u2581born": 1528,
  "um": 1529,
  "\u2581\u0d28\u0d41": 1530,
  "\u2581\u0d05\u0d28\u0d41": 1531,
  "\u2581\u0d12\u0d30\u0d3f\u0d15\u0d4d\u0d15\u0d32\u0d41\u0d02": 1532,
  "\u2581\u0d2e\u0d47": 1533,
  "\u0d3f\u0d32\u0d4d\u0d32\u0d47": 1534,
  "\u0d28\u0d3f\u0d19\u0d4d\u0d19\u0d7e": 1535,
  "\u0d41\u0d28\u0d4d\u0d28\u0d24\u0d3f\u0d28\u0d4d": 1536,
  "\u0d35\u0d40": 1537,
  "\u2581Have": 1538,
  "\u2581morning": 1539,
  "cr": 1540,
  "\u2581\u0d06\u0d24\u0d4d\u0d2e\u0d40\u0d2f": 1541,
  "\u2581\u0d2a\u0d4d\u0d30\u0d27\u0d3e\u0d28": 1542,
  "\u0d28\u0d4d\u0d2f": 1543,
  "con": 1544,
  "ting": 1545,
  "\u0d7c\u0d24\u0d4d\u0d25": 1546,
  "\u2581\u0d19\u0d4d\u0d19": 1547,
  "\u0d15\u0d4b": 1548,
  "\u2581died": 1549,
  "\u0d2a\u0d4d\u0d2a\u0d3f\u0d1a\u0d4d\u0d1a": 1550,
  "\u0d23\u0d4d\u0d21": 1551,
  "\u2581Ka": 1552,
  "for": 1553,
  "ical": 1554,
  "\u2581\u0d2f\u0d39\u0d4b": 1555,
  "\u0d2a\u0d4d\u0d2a\u0d3f": 1556,
  "va": 1557,
  "\u2581\u0d30\u0d42\u0d2a": 1558,
  "\u2581\u0d35\u0d3f\u0d1f": 1559,
  "\u2581save": 1560,
  "\u2581age": 1561,
  "\u2581\u0d39\u0d4b": 1562,
  "\u2581school": 1563,
  "\u0d2a\u0d3e": 1564,
  "\u2581Abraham": 1565,
  "\u0d28\u0d3f\u0d28\u0d4d\u0d28\u0d41": 1566,
  "\u2581ways": 1567,
  "\u0d41\u0d15\u0d33\u0d3f\u0d7d": 1568,
  "\u2581Well": 1569,
  "\u2581\u0d1a\u0d3f\u0d32\u0d7c": 1570,
  "\u0d0e\u0d28\u0d4d\u0d31\u0d46": 1571,
  "\u0d2e\u0d3e\u0d28": 1572,
  "\u0d41\u0d2e\u0d46\u0d28\u0d4d\u0d28\u0d4d": 1573,
  "\u0d30\u0d41\u0d24\u0d41": 1574,
  "\u2581guidance": 1575,
  "\u0d1a\u0d4d\u0d1a\u0d4d": 1576,
  "\u2581\u0d15\u0d41\u0d1f\u0d41\u0d02\u0d2c": 1577,
  "\u0d02\u0d2c": 1578,
  "he": 1579,
  "ah": 1580,
  "\u2581World": 1581,
  "\u2581fact": 1582,
  "\u2581\u0d2f\u0d3e\u0d24\u0d4d\u0d30": 1583,
  "\u2581\u0d38\u0d02\u0d2c\u0d28\u0d4d\u0d27\u0d3f\u0d1a\u0d4d\u0d1a": 1584,
  "\u2581hard": 1585,
  "\u2581desire": 1586,
  "ge": 1587,
  "\u2581having": 1588,
  "\u2581\u0d15\u0d4a\u0d23\u0d4d\u0d1f\u0d41": 1589,
  "\u0d41\u0d35\u0d3f\u0d7b": 1590,
  "\u0d2f\u0d32\u0d4d\u0d32": 1591,
  "\u0d47\u0d23\u0d2e\u0d47": 1592,
  "\u25814:": 1593,
  "\u2581sun": 1594,
  "ca": 1595,
  "\u0d40\u0d2f": 1596,
  "\u2581\u0d15\u0d4d\u0d15\u0d4d": 1597,
  "\u0d46\u0d28\u0d4d\u0d28\u0d41": 1598,
  "\u2581\u0d09\u0d23\u0d4d\u0d1f\u0d3e\u0d2f\u0d3f\u0d30\u0d41\u0d28\u0d4d\u0d28\u0d41": 1599,
  "\u0d30\u0d41\u0d02": 1600,
  "\u2581\u0d28\u0d28\u0d4d\u0d2e": 1601,
  "\u2581care": 1602,
  "\u2581\u0d2f\u0d46": 1603,
  "\u2581\u0d37": 1604,
  "\u0d30\u0d23": 1605,
  "\u2581witness": 1606,
  "\u0d38\u0d41": 1607,
  "\u2581knew": 1608,
  "\u0d3e\u0d15\u0d4d\u0d15\u0d3f": 1609,
  "\u2581\u0d24\u0d41\u0d1f\u0d19\u0d4d\u0d19\u0d3f": 1610,
  "\u2581received": 1611,
  "\u2581\u0d2c\u0d28\u0d4d\u0d27": 1612,
  "\u2581\u0d2d\u0d3e\u0d17": 1613,
  "\u2581yourself": 1614,
  "\u2581Us": 1615,
  "\u2581talk": 1616,
  "rs": 1617,
  "\u2581\u0d15\u0d4a\u0d1f\u0d41\u0d15\u0d4d\u0d15": 1618,
  "\u2581\u0d30\u0d23\u0d4d\u0d1f\u0d4d": 1619,
  "\u2581\u0d38\u0d4d\u0d35\u0d28\u0d4d\u0d24\u0d02": 1620,
  "ak": 1621,
  "\u2581Yet": 1622,
  "\u2581rest": 1623,
  "\u2581drink": 1624,
  "\u2581\u0d28\u0d3e\u0d25\u0d7b": 1625,
  "\u0d15\u0d3e\u0d32": 1626,
  "less": 1627,
  "\u2581\u0d05\u0d35\u0d30\u0d4b\u0d1f\u0d41": 1628,
  "\u2581States": 1629,
  "\u2581alone": 1630,
  "\u2581receive": 1631,
  "\u2581verily": 1632,
  "\u2581Surely": 1633,
  "ial": 1634,
  "\u0d37\u0d4d\u0d2f": 1635,
  "\u2581f": 1636,
  "\u0d2e\u0d3e\u0d15\u0d4d\u0d15": 1637,
  "ty": 1638,
  "id": 1639,
  "\u2581bad": 1640,
  "pe": 1641,
  "\u2581mean": 1642,
  "\u2581\u0d2a\u0d31\u0d1e\u0d4d\u0d1e\u0d24\u0d4d": 1643,
  "\u2581toward": 1644,
  "\u2581King": 1645,
  "\u2581\u0d12\u0d30": 1646,
  "\u2581\u0d16": 1647,
  "\u2581trust": 1648,
  "\u2581\u0d0e\u0d28\u0d3f\u0d15\u0d4d\u0d15": 1649,
  "\u0d17\u0d3e": 1650,
  "\u2581\u0d35\u0d7c\u0d37\u0d02": 1651,
  "\u2581\u0d35\u0d3f\u0d36\u0d4d\u0d35\u0d38\u0d4d": 1652,
  "\u2581service": 1653,
  "\u2581\u0d06\u0d30\u0d46\u0d19\u0d4d\u0d15\u0d3f\u0d32\u0d41\u0d02": 1654,
  "\u0d2a\u0d4b": 1655,
  "\u2581works": 1656,
  "\u0d30\u0d40": 1657,
  "ta": 1658,
  "\u2581Man": 1659,
  "\u2581\u0d06\u0d15\u0d41\u0d28\u0d4d\u0d28\u0d41": 1660,
  "\u2581second": 1661,
  "\u0d24\u0d32\u0d4d\u0d32": 1662,
  "\u2581consider": 1663,
  "\u2581\u0d38\u0d39": 1664,
  "\u2581Son": 1665,
  "\u2581religion": 1666,
  "\u2581g": 1667,
  "\u2581country": 1668,
  "\u0d2a\u0d41": 1669,
  "\u2581husband": 1670,
  "\u2581above": 1671,
  "\u2581already": 1672,
  "\u2581whatever": 1673,
  "\u258132": 1674,
  "\u2581\u0d2e\u0d42\u0d28\u0d4d\u0d28\u0d41": 1675,
  "\u2581\u0d05\u0d32": 1676,
  "\u0d35\u0d46\u0d1a\u0d4d\u0d1a\u0d41": 1677,
  "\u0d30\u0d3f\u0d15\u0d4d\u0d15": 1678,
  "\u0d1c\u0d4d\u0d1e": 1679,
  "\u0d3e\u0d23\u0d41": 1680,
  "\u2581wicked": 1681,
  "\u2581\u0d15\u0d46": 1682,
  "\u2581\u0d28\u0d3f\u0d30": 1683,
  "\u2581\u0d2a\u0d46\u0d1f\u0d4d\u0d1f": 1684,
  "\u25811:": 1685,
  "\u2581soon": 1686,
  "\u2581\u0d2c\u0d4d\u0d30": 1687,
  "\u2581\u0d35\u0d3f\u0d36\u0d4d\u0d35\u0d38\u0d3f\u0d15\u0d4d\u0d15": 1688,
  "\u2581\u0d30\u0d3e\u0d24\u0d4d\u0d30\u0d3f": 1689,
  "\u2581body": 1690,
  "\u2581\u0d35\u0d30\u0d41\u0d24\u0d4d\u0d24": 1691,
  "\u2581\u0d15\u0d4d\u0d15\u0d41\u0d02": 1692,
  "\u2581\u0d2f\u0d41\u0d1f\u0d46": 1693,
  "\u2581answer": 1694,
  "\u2581\u0d23": 1695,
  "\u258140": 1696,
  "\u0d2f\u0d4b\u0d1f\u0d46": 1697,
  "\u2581\u0d38\u0d4d\u0d35\u0d2f\u0d02": 1698,
  "\u0d30\u0d3f\u0d2f": 1699,
  "\u0d1f\u0d4d\u0d1f\u0d41": 1700,
  "\u2581none": 1701,
  "\u2581system": 1702,
  "\u2581\u0d05\u0d35\u0d28\u0d4b\u0d1f\u0d41": 1703,
  "\u0d32\u0d4d\u0d32\u0d47": 1704,
  "\u2581Peter": 1705,
  "\u2581\u0d15\u0d1f": 1706,
  "\u2581promise": 1707,
  "\u2581\u0d35\u0d3f\u0d1f\u0d4d\u0d1f\u0d41": 1708,
  "\u0d38\u0d7c": 1709,
  "\u2581shal": 1710,
  "\u2581\u0d35\u0d7c\u0d37": 1711,
  "\u2581kind": 1712,
  "\u2581\u0d30\u0d15\u0d4d\u0d37\u0d3f\u0d24\u0d3e\u0d35\u0d4d": 1713,
  "\u2581next": 1714,
  "30": 1715,
  "ni": 1716,
  "\u0d28\u0d4d\u0d28\u0d3f": 1717,
  "\u0d35\u0d3e\u0d7b": 1718,
  "\u2581appointed": 1719,
  "\u2581making": 1720,
  "\u2581someone": 1721,
  "\u2581\u0d2e\u0d3e\u0d24\u0d4d\u0d30\u0d2e\u0d47": 1722,
  "\u2581\u0d35\u0d30\u0d41\u0d28\u0d4d\u0d28": 1723,
  "\u0d1e\u0d3e\u0d7b": 1724,
  "\u2581often": 1725,
  "\u2581\u0d15\u0d23\u0d4d\u0d1f\u0d46\u0d24\u0d4d\u0d24": 1726,
  "\u2581\u0d2e\u0d31": 1727,
  "\u2581J": 1728,
  "\u0d36\u0d3f": 1729,
  "lt": 1730,
  "\u0d32\u0d4d\u0d2f": 1731,
  "\u2581\u0d28\u0d28\u0d4d\u0d28\u0d3e\u0d2f\u0d3f": 1732,
  "\u2581\u0d2a\u0d1f\u0d4d\u0d1f\u0d23": 1733,
  "\u2581wisdom": 1734,
  "\u0d35\u0d3e\u0d38": 1735,
  "\u2581kill": 1736,
  "\u2581Su": 1737,
  "\u2581Mar": 1738,
  "\u2581\u0d07\u0d02\u0d17\u0d4d\u0d32\u0d40\u0d37\u0d4d": 1739,
  "\u0d1a\u0d4d\u0d1a\u0d3f": 1740,
  "\u2581\u0d28\u0d7d\u0d15\u0d41\u0d15\u0d2f\u0d41\u0d02": 1741,
  "\u0d19\u0d4d\u0d19\u0d33\u0d3f\u0d32\u0d41\u0d02": 1742,
  "\u2581reason": 1743,
  "\u0d31\u0d3e": 1744,
  "\u2581\u0d2e\u0d30": 1745,
  "\u2581\u0d28\u0d4b": 1746,
  "\u2581coming": 1747,
  "\u2581\u0d07\u0d35\u0d7c": 1748,
  "\u2581\u0d05\u0d25\u0d35\u0d3e": 1749,
  "\u0d3f\u0d1f\u0d4d\u0d1f": 1750,
  "\u2581stand": 1751,
  "\u2581\u0d15\u0d42\u0d1f\u0d3e\u0d24\u0d46": 1752,
  "\u2581\u0d24\u0d3f\u0d30\u0d41": 1753,
  "ac": 1754,
  "\u258133": 1755,
  "\u2581\u0d05\u0d35\u0d33\u0d46": 1756,
  "\u2581friends": 1757,
  "\u0d3f\u0d15\u0d4d\u0d15\u0d41\u0d28\u0d4d\u0d28\u0d41": 1758,
  "\u2581\u0d24\u0d3f\u0d30\u0d3f\u0d1a\u0d4d\u0d1a\u0d41": 1759,
  "\u0d3f\u0d30\u0d41\u0d28\u0d4d\u0d28\u0d46\u0d19\u0d4d\u0d15\u0d3f\u0d7d": 1760,
  "\u2581side": 1761,
  "\u2581anyone": 1762,
  "\u0d41\u0d35": 1763,
  "\u0d3f\u0d1a\u0d4d\u0d1a\u0d4d": 1764,
  "\u2581behind": 1765,
  "\u2581present": 1766,
  "\u0d2f\u0d3e\u0d23\u0d4b": 1767,
  "\u0d2c\u0d3e": 1768,
  "\u0d24\u0d4d\u0d24\u0d3f\u0d32\u0d47\u0d15\u0d4d\u0d15\u0d4d": 1769,
  "\u2581fight": 1770,
  "\u2581\u0d2a\u0d4b\u0d32\u0d41\u0d02": 1771,
  "be": 1772,
  "\u0d3e\u0d28\u0d3e\u0d2f\u0d3f": 1773,
  "\u0d24\u0d41\u0d2a\u0d4b\u0d32\u0d46": 1774,
  "\u2581command": 1775,
  "\u0d41\u0d15\u0d2f\u0d41\u0d23\u0d4d\u0d1f\u0d3e\u0d2f\u0d3f": 1776,
  "\u2581\u0d1c\u0d28\u0d24": 1777,
  "\u2581\u0d24\u0d28\u0d4d\u0d28": 1778,
  "\u2581Verily": 1779,
  "\u2581\u0d24\u0d4d\u0d30": 1780,
  "\u2581\u0d28\u0d3f\u0d19\u0d4d\u0d19\u0d33\u0d3f\u0d7d": 1781,
  "\u25815:": 1782,
  "\u2581\u0d2a\u0d4d\u0d30\u0d35\u0d7c\u0d24\u0d4d\u0d24\u0d3f\u0d1a\u0d4d\u0d1a": 1783,
  "\u2581\u0d06\u0d30\u0d41\u0d02": 1784,
  "ence": 1785,
  "\u2581\u0d32\u0d4b": 1786,
  "ka": 1787,
  "\u0d2e\u0d42": 1788,
  "\u2581nations": 1789,
  "\u2581\u0d09\u0d2a": 1790,
  "\u0d4b\u0d1f": 1791,
  "\u2581\u0d05\u0d26\u0d4d\u0d26\u0d47\u0d39\u0d24\u0d4d\u0d24\u0d46": 1792,
  "\u0d15\u0d42\u0d1f\u0d3f": 1793,
  "\u2581\u0d38\u0d4d\u0d31\u0d4d\u0d31": 1794,
  "\u2581\u0d35\u0d46\u0d1a\u0d4d\u0d1a": 1795,
  "\u2581\u0d26\u0d48\u0d35\u0d24\u0d4d\u0d24\u0d46": 1796,
  "\u2581\u0d28\u0d1f\u0d15\u0d4d\u0d15": 1797,
  "\u2581yourselves": 1798,
  "\u2581\u0d15\u0d34\u0d3f\u0d2f": 1799,
  "\u2581\u0d35\u0d3f\u0d36\u0d4d\u0d35\u0d3e\u0d38": 1800,
  "\u0d24\u0d4d\u0d24\u0d3f\u0d28\u0d41\u0d02": 1801,
  "\u2581self": 1802,
  "\u0d3e\u0d24\u0d3f\u0d30\u0d3f\u0d15\u0d4d\u0d15": 1803,
  "\u0d38\u0d3f\u0d7d": 1804,
  "\u2581\u0d0e\u0d1f\u0d41\u0d24\u0d4d\u0d24\u0d41": 1805,
  "\u2581\u0d17\u0d4b": 1806,
  "\u2581\u0d06\u0d2f\u0d3f": 1807,
  "\u2581\u0d38\u0d02\u0d38\u0d3e\u0d30\u0d3f\u0d15\u0d4d\u0d15": 1808,
  "\u2581\u0d39\u0d46": 1809,
  "\u2581art": 1810,
  "\u2581\u0d2f\u0d39\u0d4b\u0d35\u0d2f\u0d46": 1811,
  "\u0d1c\u0d4d": 1812,
  "\u2581Of": 1813,
  "\u2581\u0d32\u0d2d\u0d3f\u0d1a\u0d4d\u0d1a": 1814,
  "\u2581\u0d28\u0d4d": 1815,
  "\u2581Prophet": 1816,
  "tic": 1817,
  "\u0d2e\u0d3e\u0d15\u0d4d\u0d15\u0d3f": 1818,
  "\u2581disciples": 1819,
  "\u2581\u0d2a\u0d4d\u0d30\u0d36\u0d4d": 1820,
  "\u2581marriage": 1821,
  "du": 1822,
  "\u2581doubt": 1823,
  "\u2581small": 1824,
  "\u0d2f\u0d3e\u0d33": 1825,
  "\u2581\u0d07\u0d2a\u0d4d\u0d30\u0d15\u0d3e\u0d30\u0d02": 1826,
  "\u2581\u0d35\u0d46\u0d15\u0d4d\u0d15": 1827,
  "\u2581open": 1828,
  "\u2581La": 1829,
  "\u2581\u0d35\u0d48": 1830,
  "\u2581\u0d2f\u0d41\u0d26\u0d4d\u0d27": 1831,
  "\u2581nation": 1832,
  "\u2581\u0d2d\u0d3e\u0d30\u0d4d\u0d2f": 1833,
  "\u0d35\u0d28\u0d41\u0d02": 1834,
  "\u0d2e\u0d3e\u0d30": 1835,
  "\u2581\u0d28\u0d3f\u0d32\u0d2f\u0d3f\u0d7d": 1836,
  "\u25816:": 1837,
  "\u2581Sha": 1838,
  "\u2581\u0d1c\u0d40\u0d35\u0d3f\u0d24\u0d02": 1839,
  "\u2581\u0d05\u0d28\u0d4d\u0d28\u0d4d": 1840,
  "\u2581\u0d06\u0d35\u0d36\u0d4d\u0d2f": 1841,
  "\u2581\u0d05\u0d35\u0d28\u0d4d": 1842,
  "\u2581believed": 1843,
  "\u2581\u0d36\u0d4d\u0d30\u0d26\u0d4d\u0d27": 1844,
  "\u2581Will": 1845,
  "\u2581\u0d15\u0d3f": 1846,
  "\u2581\u0d2e\u0d15\u0d7b": 1847,
  "\u2581\u0d2e\u0d28\u0d41\u0d37\u0d4d\u0d2f\u0d7b": 1848,
  "\u2581Did": 1849,
  "\u2581whole": 1850,
  "\u2581\u0d05\u0d24\u0d3f\u0d28\u0d4d": 1851,
  "ble": 1852,
  "qui": 1853,
  "\u2581\u0d2b\u0d32": 1854,
  "\u2581enter": 1855,
  "\u0d32\u0d47": 1856,
  "\u0d28\u0d4d\u0d2e\u0d3e\u0d30": 1857,
  "\u0d3e\u0d23\u0d46\u0d28\u0d4d\u0d28\u0d4d": 1858,
  "\u2581\u0d28\u0d17\u0d30": 1859,
  "\u0d24\u0d4d\u0d24\u0d3f\u0d32\u0d41\u0d33\u0d4d\u0d33": 1860,
  "\u2581\u0d28\u0d1f\u0d24\u0d4d\u0d24": 1861,
  "ism": 1862,
  "\u2581poor": 1863,
  "ance": 1864,
  "\u2581\u0d0e\u0d32\u0d4d\u0d32\u0d3e\u0d35\u0d30\u0d41\u0d02": 1865,
  "\u2581\u0d05\u0d35\u0d28\u0d4d\u0d28": 1866,
  "\u2581\u0d35\u0d47\u0d23\u0d02": 1867,
  "\u2581\u0d07\u0d24\u0d3f\u0d7d": 1868,
  "\u2581\u0d38\u0d3e\u0d15\u0d4d\u0d37\u0d3f": 1869,
  "\u2581seven": 1870,
  "\u0d2e\u0d40": 1871,
  "\u2581\u0d1c\u0d40\u0d35\u0d3f\u0d24": 1872,
  "\u2581\u0d28\u0d7d\u0d15\u0d41\u0d28\u0d4d\u0d28": 1873,
  "\u2581\u0d28\u0d3e\u0d25\u0d28\u0d4d\u0d31\u0d46": 1874,
  "\u2581\u0d13\u0d2b\u0d4d": 1875,
  "\u2581English": 1876,
  "\u2581Fire": 1877,
  "\u2581\u0d2a\u0d31\u0d4d\u0d31\u0d3f": 1878,
  "You": 1879,
  "\u0d34\u0d4d": 1880,
  "lu": 1881,
  "\u2581\u0d2f\u0d41\u0d26\u0d4d\u0d27\u0d02": 1882,
  "\u2581view": 1883,
  "\u2581\u0d35\u0d46\u0d33\u0d4d\u0d33\u0d02": 1884,
  "\u0d41\u0d15\u0d33\u0d41\u0d02": 1885,
  "\u2581\u0d17\u0d4d\u0d30": 1886,
  "\u0d41\u0d15\u0d2f\u0d3e\u0d2f\u0d3f\u0d30\u0d41\u0d28\u0d4d\u0d28\u0d41": 1887,
  "\u0d3f\u0d30\u0d3f\u0d15\u0d4d\u0d15": 1888,
  "\u2581\u0d28\u0d3f\u0d7d\u0d15\u0d4d\u0d15": 1889,
  "\u2581Ex": 1890,
  "\u0d15\u0d4d\u0d15\u0d41\u0d28\u0d4d\u0d28\u0d41": 1891,
  "\u2581%": 1892,
  "\u2581\u0d24\u0d40\u0d7c\u0d1a\u0d4d\u0d1a": 1893,
  "\u2581\u0d2e\u0d24": 1894,
  "no": 1895,
  "\u2581cut": 1896,
  "\u2581\u0d2c\u0d46": 1897,
  "\u0d15\u0d4d\u0d15\u0d41\u0d15": 1898,
  "\u2581Judah": 1899,
  "\u0d30\u0d4d\u0d2f": 1900,
  "au": 1901,
  "\u2581makes": 1902,
  "\u0d3f\u0d32\u0d47\u0d15\u0d4d\u0d15\u0d41": 1903,
  "\u0d23\u0d4d\u0d1f\u0d4d": 1904,
  "\u2581disbelieve": 1905,
  "\u0d27\u0d3f": 1906,
  "\u2581V": 1907,
  "\u0d28\u0d4d\u0d24\u0d3f": 1908,
  "\u2581\u0d2f\u0d47\u0d36\u0d41\u0d35\u0d3f\u0d28\u0d4d\u0d31\u0d46": 1909,
  "\u0d2e\u0d3e\u0d15\u0d41\u0d28\u0d4d\u0d28\u0d41": 1910,
  "\u2581case": 1911,
  "\u2581\u0d0e\u0d28\u0d4d\u0d28\u0d3f\u0d1f\u0d4d\u0d1f\u0d41\u0d02": 1912,
  "\u2581\u0d36\u0d3f": 1913,
  "ron": 1914,
  "\u2581fathers": 1915,
  "\u2581\u0d0e\u0d28\u0d4d\u0d28\u0d3e\u0d23\u0d4d": 1916,
  "\u0d15\u0d3f": 1917,
  "\u2581According": 1918,
  "\u2581Therefore": 1919,
  "\u2581since": 1920,
  "\u2581\u0d07\u0d24\u0d3e": 1921,
  "\u2581t": 1922,
  "\u0d15\u0d30\u0d2e\u0d3e\u0d2f": 1923,
  "\u0d2f\u0d3f\u0d32\u0d47\u0d15\u0d4d\u0d15\u0d4d": 1924,
  "\u2581\u0d28\u0d3f\u0d28\u0d15\u0d4d\u0d15": 1925,
  "\u2581\u0d38\u0d43\u0d37\u0d4d\u0d1f\u0d3f\u0d1a\u0d4d\u0d1a": 1926,
  "\u2581counsel": 1927,
  "\u2581\u0d2a\u0d47\u0d30": 1928,
  "\u0d24\u0d4d\u0d24\u0d46\u0d2f\u0d41\u0d02": 1929,
  "\u0d2f\u0d7b": 1930,
  "\u2581\u0d2e\u0d3e\u0d31\u0d4d\u0d31": 1931,
  "\u0d37\u0d3f": 1932,
  "\u2581People": 1933,
  "\u2581\u0d0e\u0d23\u0d4d\u0d23": 1934,
  "\u2581\u0d0e\u0d28\u0d4d\u0d24\u0d46\u0d19\u0d4d\u0d15\u0d3f\u0d32\u0d41\u0d02": 1935,
  "\u2581walk": 1936,
  "\u0d32\u0d41\u0d02": 1937,
  "\u2581daughter": 1938,
  "\u2581share": 1939,
  "\u2581account": 1940,
  "\u2581friend": 1941,
  "\u0d30\u0d42\u0d2a": 1942,
  "\u2581close": 1943,
  "\u2581fine": 1944,
  "ling": 1945,
  "\u2581wise": 1946,
  "\u2581\u0d06\u0d2f": 1947,
  "\u2581\u0d24\u0d4d\u0d24\u0d3f\u0d7d": 1948,
  "],": 1949,
  "\u0d47\u0d23\u0d4d\u0d1f\u0d24\u0d4d": 1950,
  "\u2581\u0d2a\u0d3e\u0d2a": 1951,
  "\u0d4a\u0d28\u0d4d\u0d28\u0d41": 1952,
  "\u2581lost": 1953,
  "\u2581\u0d38\u0d4d\u0d35\u0d40\u0d15\u0d30\u0d3f\u0d15\u0d4d\u0d15": 1954,
  "\u2581Ad": 1955,
  "\u2581\u0d05\u0d02\u0d17": 1956,
  "\u0d15\u0d7e\u0d15\u0d4d\u0d15\u0d4d": 1957,
  "\u2581Because": 1958,
  "\u2581\u0d0e\u0d1f\u0d41\u0d15\u0d4d\u0d15": 1959,
  "\u2581\u0d38\u0d48\u0d28\u0d4d\u0d2f": 1960,
  "\u0d24\u0d3f\u0d30": 1961,
  "\u2581\u0d2e\u0d30\u0d3f\u0d1a\u0d4d\u0d1a": 1962,
  "\u0d15\u0d4d\u0d15\u0d46": 1963,
  "\u2581\u0d2e\u0d42": 1964,
  "ful": 1965,
  "ative": 1966,
  "go": 1967,
  "\u2581different": 1968,
  "\u2581\u0d39\u0d43\u0d26\u0d2f": 1969,
  "\u2581\u0d06\u0d15\u0d2f\u0d3e\u0d7d": 1970,
  "\u2581\u0d2d\u0d3e\u0d37": 1971,
  "\u2581five": 1972,
  "\u2581\u0d2e\u0d3e\u0d31\u0d3f": 1973,
  "\u0d19\u0d4d": 1974,
  "\u2581\u0d31\u0d4b": 1975,
  "\u2581ministry": 1976,
  "\u2581\u0d38\u0d39\u0d3e\u0d2f\u0d3f\u0d15\u0d4d\u0d15": 1977,
  "\u2581along": 1978,
  "\u2581result": 1979,
  "\u0d36\u0d3e": 1980,
  "\u0d1a\u0d4d\u0d1b": 1981,
  "\u0d2a\u0d4b\u0d15": 1982,
  "\u2581gone": 1983,
  "\u2581\u0d0f\u0d15": 1984,
  "\u2581\u0d35\u0d30\u0d41\u0d02": 1985,
  "\u0d38\u0d4d\u0d24": 1986,
  "\u2581\u0d35\u0d40\u0d1f\u0d4d\u0d1f\u0d3f\u0d7d": 1987,
  "\u25810": 1988,
  "\u2581bear": 1989,
  "\u0d3e\u0d32": 1990,
  "\u2581\u0d15\u0d4a\u0d1f\u0d41\u0d24\u0d4d\u0d24": 1991,
  "\u2581\u0d2e\u0d30\u0d3f\u0d15\u0d4d\u0d15": 1992,
  "\u2581\u0d24\u0d4b\u0d28\u0d4d\u0d28": 1993,
  "\u25aa": 1994,
  "\u2581\u0d15\u0d3e\u0d23\u0d3e\u0d7b": 1995,
  "19": 1996,
  "\u25812009": 1997,
  "\u0d15\u0d42": 1998,
  "\u2581article": 1999,
  "\u0d30\u0d41\u0d1f\u0d46": 2000,
  "\u2581glory": 2001,
  "\u2581thus": 2002,
  "\u2581\u0d15\u0d42": 2003,
  "\u0d35\u0d41\u0d2e\u0d3e\u0d2f\u0d3f": 2004,
  "\u0d2a\u0d4d\u0d2a\u0d46\u0d1f\u0d41\u0d24\u0d4d\u0d24": 2005,
  "\u258150": 2006,
  "\u2581lives": 2007,
  "\u2581strong": 2008,
  "\u2581Al": 2009,
  "\u2581act": 2010,
  "\u2581\u0d2a\u0d20\u0d3f\u0d15\u0d4d\u0d15": 2011,
  "\u2581certain": 2012,
  "\u2581dis": 2013,
  "\u2581--": 2014,
  "\u0d28\u0d3f\u0d2f": 2015,
  "\u2581\u0d2e\u0d3e\u0d38": 2016,
  "\u0d17\u0d4b": 2017,
  "\u2581\u0d05\u0d24\u0d32\u0d4d\u0d32": 2018,
  "\u2581voice": 2019,
  "\u2581\u0d06\u0d15": 2020,
  "\u2581\u0d09\u0d23\u0d4d\u0d1f\u0d3e\u0d2f\u0d3f\u0d30\u0d41\u0d28\u0d4d\u0d28": 2021,
  "\u2581\u0d2e\u0d3e\u0d28": 2022,
  "\u2581\u0d28\u0d3f\u0d7c": 2023,
  "\u0d1a\u0d3f": 2024,
  "\u2581change": 2025,
  "\u0d38\u0d2d": 2026,
  "\u0d24\u0d3f\u0d28\u0d41": 2027,
  "\u2581\u0d2e\u0d28\u0d41\u0d37\u0d4d\u0d2f": 2028,
  "):": 2029,
  "cc": 2030,
  "\u0d2d\u0d3e": 2031,
  "\u2581covenant": 2032,
  "\u0d24\u0d4d\u0d24\u0d3f\u0d32\u0d47\u0d15\u0d4d\u0d15\u0d41": 2033,
  "\u2581car": 2034,
  "\u2581\u0d28\u0d4b\u0d15\u0d4d\u0d15\u0d3f": 2035,
  "\u2581\u0d38\u0d39\u0d3e\u0d2f\u0d3f": 2036,
  "\u0d15\u0d4d\u0d15\u0d41\u0d28\u0d4d\u0d28": 2037,
  "\u2581\u0d35\u0d3f\u0d27\u0d3f": 2038,
  "\u2581joy": 2039,
  "org": 2040,
  "\u2581gives": 2041,
  "\u2581\u0d17\u0d41\u0d23": 2042,
  "mon": 2043,
  "\u0d15\u0d7b": 2044,
  "\u2581killed": 2045,
  "\u2581See": 2046,
  "\u0d2e\u0d3e\u0d15": 2047,
  "\u2581\u0d1a\u0d46\u0d31\u0d41": 2048,
  "\u0d3f\u0d30\u0d41\u0d28\u0d4d\u0d28\u0d24\u0d4d": 2049,
  "da": 2050,
  "60": 2051,
  "\u2581Muhammad": 2052,
  "\u25812008": 2053,
  "\u2581lie": 2054,
  "\u2581torment": 2055,
  "\u2581sins": 2056,
  "\u2581stay": 2057,
  "\u2581Le": 2058,
  "\u2581\u0d35\u0d3f\u0d35\u0d3e\u0d39\u0d02": 2059,
  "\u2581\u0d26\u0d48\u0d35\u0d2e\u0d3e\u0d2f": 2060,
  "\u2581\u0d2a\u0d41\u0d31\u0d02": 2061,
  "\u0d15\u0d4d\u0d15\u0d3f\u0d1f\u0d2f\u0d3f\u0d7d": 2062,
  "\u0d7b\u0d38\u0d4d": 2063,
  "\u2581pray": 2064,
  "\u2581support": 2065,
  "\u2581\u0d35\u0d3f\u0d36\u0d4d\u0d35\u0d38\u0d3f\u0d1a\u0d4d\u0d1a": 2066,
  "\u2581\u0d2a\u0d41\u0d31\u0d24\u0d4d\u0d24\u0d41": 2067,
  ",)": 2068,
  "\u2581Jews": 2069,
  "\u0d15\u0d4d\u0d15\u0d3e\u0d2f\u0d3f": 2070,
  "\u0d24\u0d46\u0d28\u0d4d\u0d28\u0d4d": 2071,
  "\u2581Psalm": 2072,
  "\u0d3e\u0d15\u0d1f\u0d4d\u0d1f\u0d46": 2073,
  "\u2581respect": 2074,
  "\u2581Just": 2075,
  "\u2581concerning": 2076,
  "\u2581hold": 2077,
  "\u0d35\u0d36": 2078,
  "ie": 2079,
  "\u2581\u0d07\u0d30\u0d41": 2080,
  "\u2581ten": 2081,
  "\u0d36\u0d4d\u0d30": 2082,
  "\u2581\u0d38\u0d28\u0d4d\u0d26\u0d7c\u0d2d\u0d02": 2083,
  "\u2581\u0d2a\u0d3f\u0d1f\u0d3f\u0d1a\u0d4d\u0d1a\u0d41": 2084,
  "\u0d28\u0d3f\u0d28\u0d4d\u0d28": 2085,
  "\u2581\u0d09\u0d23\u0d4d\u0d1f\u0d3e\u0d15\u0d4d\u0d15": 2086,
  "\u2581married": 2087,
  "\u2581\u0d10": 2088,
  "\u2581\u0d2e\u0d3e\u0d2f": 2089,
  "\u2581destroyed": 2090,
  "\u0d3f\u0d32\u0d42\u0d1f\u0d46": 2091,
  "\u0d7c\u0d37": 2092,
  "op": 2093,
  "\u2581\u0d2e\u0d41\u0d34\u0d41\u0d35\u0d7b": 2094,
  "\u0d35\u0d4d\u0d2f": 2095,
  "\u2581\u0d35\u0d38\u0d4d": 2096,
  "\u2581\u0d30\u0d3e\u0d1c": 2097,
  "\u0d35\u0d28\u0d4d\u0d28\u0d41": 2098,
  "\u2581fellow": 2099,
  "ga": 2100,
  "\u0d3e\u0d27\u0d3f": 2101,
  "\u2581Mr": 2102,
  "\u2581pay": 2103,
  "\u2581whether": 2104,
  "%": 2105,
  "\u0d28\u0d4d\u0d26\u0d4d\u0d30": 2106,
  "\u2581cast": 2107,
  "\u2581\u0d2a\u0d1f": 2108,
  "\u2581India": 2109,
  "\u0d31\u0d4b": 2110,
  "\u0d36\u0d3e\u0d32": 2111,
  "\u0d3e\u0d35\u0d41\u0d28\u0d4d\u0d28": 2112,
  "\u2581\u0d38\u0d4b": 2113,
  "om": 2114,
  "\u2581\u0d15\u0d34\u0d3f\u0d15\u0d4d\u0d15": 2115,
  "\u2581happened": 2116,
  "\u0d46\u0d15\u0d4d\u0d15\u0d41": 2117,
  "\u0d41\u0d2e": 2118,
  "\u2581\u0d2a\u0d41\u0d30": 2119,
  "\u2581\u0d28\u0d41\u0d02": 2120,
  "\u2581\u0d12\u0d15\u0d4d\u0d15\u0d46\u0d2f\u0d41\u0d02": 2121,
  "\u0d2a\u0d4d\u0d2a\u0d4b\u0d32\u0d46": 2122,
  "\u2581message": 2123,
  "\u2581obey": 2124,
  "\u2581\u0d24\u0d41\u0d1f\u0d19\u0d4d\u0d19\u0d3f\u0d2f": 2125,
  "\u2581Yeah": 2126,
  "\u0d2e\u0d28": 2127,
  "\u0d3f\u0d28\u0d46\u0d2f\u0d41\u0d02": 2128,
  "\u2581listen": 2129,
  "\u2581\u0d35\u0d47\u0d31\u0d46": 2130,
  "\u0d7c\u0d1a\u0d4d\u0d1a": 2131,
  "\u258135": 2132,
  "ff": 2133,
  "\u2581helped": 2134,
  "\u0d24\u0d4d\u0d24\u0d3f\u0d28\u0d3e\u0d2f\u0d3f": 2135,
  "\u0d35\u0d4d\u0d35": 2136,
  "\u2581\u0d38\u0d40": 2137,
  "\u0d24\u0d4d\u0d35": 2138,
  "\u2581enough": 2139,
  "\u2581\u0d2d\u0d42": 2140,
  "\u0d24\u0d4d\u0d35\u0d02": 2141,
  "\u2581\u0d1a\u0d46\u0d31\u0d3f\u0d2f": 2142,
  "act": 2143,
  "\u0d41\u0d28\u0d4d\u0d28\u0d24\u0d3f\u0d28\u0d41": 2144,
  "\u2581written": 2145,
  "\u0d4a\u0d15\u0d4d\u0d15\u0d46": 2146,
  "hy": 2147,
  "\u2581astray": 2148,
  "\u2581\u0d07\u0d30\u0d3f\u0d15\u0d4d\u0d15": 2149,
  "ab": 2150,
  "\u2581\u0d05\u0d2a\u0d4d\u0d2a\u0d4a\u0d38\u0d4d": 2151,
  "\u2581happy": 2152,
  "\u2581film": 2153,
  "\u2581\u0d2c\u0d4b": 2154,
  "\u2581\u0d35\u0d3f\u0d33\u0d3f\u0d1a\u0d4d\u0d1a\u0d41": 2155,
  "\u2581\u0d1c\u0d3e": 2156,
  "\u2581pre": 2157,
  "\u0d1c\u0d4d\u0d1c": 2158,
  "\u2581Look": 2159,
  "\u2581kingdom": 2160,
  "\u2581ma": 2161,
  "\u0d4a\u0d28\u0d4d\u0d28\u0d41\u0d02": 2162,
  "\u2581servant": 2163,
  "\u2581sight": 2164,
  "\u2581wanted": 2165,
  "&": 2166,
  "\u0d30\u0d3f\u0d15": 2167,
  "\u2581\u0d28\u0d47": 2168,
  "\u0d26\u0d47": 2169,
  "\u0d35\u0d46\u0d1a\u0d4d\u0d1a": 2170,
  "\u0d46\u0d1f\u0d41\u0d15\u0d4d\u0d15": 2171,
  "\u2581\u0d15\u0d3f\u0d1f\u0d4d\u0d1f": 2172,
  "\u2581Merciful": 2173,
  "\u2581\u0d38\u0d39\u0d3e\u0d2f\u0d02": 2174,
  "03": 2175,
  "\u2581fall": 2176,
  "\u2581Un": 2177,
  "\u0d24\u0d4d\u0d30\u0d46": 2178,
  "\u2581\u0d24\u0d19\u0d4d\u0d19\u0d7e": 2179,
  "\u2581\u0d35\u0d46\u0d33\u0d4d\u0d33": 2180,
  "\u2581purpose": 2181,
  "\u2581whoever": 2182,
  "\u2581deny": 2183,
  "\u0d2a\u0d4d\u0d2a\u0d46\u0d1f\u0d41\u0d15\u0d2f\u0d41\u0d02": 2184,
  "\u0d41\u0d23\u0d4d\u0d1f\u0d3e\u0d2f": 2185,
  "\u2581Many": 2186,
  "\u2581thousand": 2187,
  "\u2581Good": 2188,
  "\u0d2a\u0d4b\u0d32\u0d41\u0d02": 2189,
  "\u2581remain": 2190,
  "\u2581\u0d24\u0d2e\u0d4d\u0d2e\u0d3f\u0d7d": 2191,
  "\u2581\u0d2a\u0d41\u0d38\u0d4d": 2192,
  "\u2581\u0d35\u0d3f\u0d33\u0d3f\u0d15\u0d4d\u0d15": 2193,
  "\u2581preaching": 2194,
  "\u2581\u0d05\u0d26\u0d4d\u0d26\u0d47\u0d39\u0d24\u0d4d\u0d24\u0d3f\u0d28\u0d4d": 2195,
  "\u2581\u0d35\u0d3f\u0d36\u0d4d\u0d35\u0d38\u0d3f\u0d15\u0d4d\u0d15\u0d41\u0d28\u0d4d\u0d28": 2196,
  "\u2581Ja": 2197,
  "\u2581flesh": 2198,
  "\u2581\u0d05\u0d24\u0d4d\u0d24\u0d30\u0d02": 2199,
  "\u0d2f\u0d46\u0d2f\u0d41\u0d02": 2200,
  "\u2581however": 2201,
  "\u2581months": 2202,
  "\u0d2a\u0d4d\u0d30\u0d15\u0d3e\u0d30\u0d02": 2203,
  "\u2581\u0d05\u0d35\u0d2f\u0d46": 2204,
  "\u2581language": 2205,
  "\u0d15\u0d4a\u0d1f\u0d41\u0d15\u0d4d\u0d15": 2206,
  "ip": 2207,
  "\u2581thereof": 2208,
  "ag": 2209,
  "\u2581Ta": 2210,
  "\u2581god": 2211,
  "\u2581\u0d05\u0d35\u0d7c\u0d15\u0d4d\u0d15\u0d41\u0d02": 2212,
  "\u0d28\u0d3e\u0d23\u0d4d": 2213,
  "\u2581hundred": 2214,
  "ja": 2215,
  "ver": 2216,
  "\u2581\u0d38\u0d41\u0d16": 2217,
  "\u2581\u0d28\u0d3f\u0d19\u0d4d\u0d19\u0d33\u0d4b\u0d1f\u0d4d": 2218,
  "\u2581\u0d26\u0d3f": 2219,
  "\u0d3f\u0d7d\u0d28\u0d3f\u0d28\u0d4d\u0d28\u0d4d": 2220,
  "80": 2221,
  "\u2581returned": 2222,
  "\u2581\u0d2c\u0d41\u0d26\u0d4d\u0d27\u0d3f": 2223,
  "\u0d41\u0d28\u0d4d\u0d28\u0d35\u0d7b": 2224,
  "\u2581forever": 2225,
  "\u25813.": 2226,
  "\u2581commanded": 2227,
  "\u2581Mi": 2228,
  "\u2581behold": 2229,
  "\u0d32\u0d4b\u0d15": 2230,
  "\u2581path": 2231,
  "\u2581meet": 2232,
  "\u2581question": 2233,
  "\u2581\u0d1a\u0d41": 2234,
  "\u0d15\u0d33\u0d46\u0d2f\u0d41\u0d02": 2235,
  "\u2581\u0d28\u0d4d\u0d2f\u0d3e\u0d2f": 2236,
  "\u0d26\u0d47\u0d36": 2237,
  "\u2581loving": 2238,
  "\u2581strength": 2239,
  "\u2581\u0d07\u0d7b": 2240,
  "\u2581\u0d33\u0d4d\u0d33": 2241,
  "\u2581\u0d26\u0d3e": 2242,
  "\u2581\u0d15\u0d3e\u0d23\u0d3f\u0d1a\u0d4d\u0d1a": 2243,
  "\u2581\u0d2a\u0d4d\u0d30\u0d3e": 2244,
  "\u2581\u0d0e\u0d34\u0d41\u0d24\u0d3f": 2245,
  "\u2581\u0d30\u0d15\u0d4d\u0d37": 2246,
  "\u2581\u0d0f\u0d24\u0d4a\u0d30\u0d41": 2247,
  "\u0d4b\u0d1f\u0d4a\u0d2a\u0d4d\u0d2a\u0d02": 2248,
  "This": 2249,
  "\u0d2a\u0d30\u0d3f": 2250,
  "\u2581Their": 2251,
  "\u2581control": 2252,
  "\u2581\u0d38\u0d28\u0d4d\u0d24\u0d4b\u0d37": 2253,
  "\u2581\u0d0e\u0d24\u0d4d\u0d24": 2254,
  "\u2581lead": 2255,
  "\u2581raised": 2256,
  "\u0d3f\u0d28": 2257,
  "ration": 2258,
  "\u0d3f\u0d7d\u0d28\u0d3f\u0d28\u0d4d\u0d28\u0d41": 2259,
  "\u2581prophet": 2260,
  "\u2581temple": 2261,
  "\u2581\u0d32\u0d2d\u0d3f\u0d15\u0d4d\u0d15": 2262,
  "\u0d35\u0d32": 2263,
  "\u25814.": 2264,
  "\u2581sense": 2265,
  "\u2581tree": 2266,
  "\u2581\u0d28\u0d3f\u0d19\u0d4d\u0d19\u0d7e\u0d15\u0d4d\u0d15": 2267,
  "\u2581\u0d2a\u0d47\u0d30\u0d4d": 2268,
  "\u2581\u0d12\u0d28\u0d4d\u0d28\u0d4d": 2269,
  "if": 2270,
  "\u0d30\u0d47": 2271,
  "\u0d3e\u0d15": 2272,
  "\u0d46\u0d32\u0d4d\u0d32\u0d3e\u0d02": 2273,
  "\u2581\u0d15\u0d41\u0d1f\u0d4d\u0d1f\u0d3f": 2274,
  "\u2581\u0d38\u0d7c\u0d35\u0d4d\u0d35": 2275,
  "do": 2276,
  "\u2581righteousness": 2277,
  "ub": 2278,
  "\u2581\u0d15\u0d42\u0d1f\u0d4d\u0d1f\u0d24\u0d4d\u0d24\u0d3f\u0d7d": 2279,
  "di": 2280,
  "\u2581\u0d2e\u0d34": 2281,
  "\u0d41\u0d35\u0d3e\u0d28\u0d41\u0d02": 2282,
  "\u2581Pharaoh": 2283,
  "\u0d35\u0d46\u0d15\u0d4d\u0d15": 2284,
  "\u2581try": 2285,
  "\u0d24\u0d40": 2286,
  "\u0d1f\u0d4d": 2287,
  "\u0d15\u0d4d\u0d15\u0d3e\u0d7b": 2288,
  "\u0d41\u0d28\u0d4d\u0d28\u0d35\u0d7c": 2289,
  "\u2581play": 2290,
  "\u2581\u0d38\u0d7c\u0d35": 2291,
  "\u2581\u0d1a\u0d4b\u0d26\u0d3f\u0d15\u0d4d\u0d15": 2292,
  "\u0d3f\u0d7b": 2293,
  "\u0d2a\u0d30": 2294,
  "\u2581Read": 2295,
  "\u2581group": 2296,
  "\u2581\u0d15\u0d25": 2297,
  "\u2581\u0d35\u0d3f\u0d36\u0d41\u0d26\u0d4d\u0d27": 2298,
  "\u2581gold": 2299,
  "\u2581Ne": 2300,
  "\u0d2a\u0d41\u0d30": 2301,
  "\u2581benefit": 2302,
  "\u2581\u0d1e\u0d3e\u0d28\u0d41\u0d02": 2303,
  "\u0d24\u0d4d\u0d24\u0d3e": 2304,
  "\u2581\u0d17\u0d3f": 2305,
  "\u2581\u0d35\u0d3e\u0d17\u0d4d\u0d26\u0d3e\u0d28\u0d02": 2306,
  "\u0d35\u0d28\u0d4d\u0d28": 2307,
  "\u2581\u0d2e\u0d3e\u0d31": 2308,
  "\u2581deal": 2309,
  "\u2581government": 2310,
  "\u2581\u0d17\u0d3e": 2311,
  "\u2581\u0d2e\u0d15\u0d28\u0d3e\u0d2f": 2312,
  "\u2581\u0d15\u0d4d\u0d15\u0d41\u0d15": 2313,
  "\u0d35\u0d3f\u0d1f": 2314,
  "\u2581real": 2315,
  "\u258134": 2316,
  "\u2581within": 2317,
  "ating": 2318,
  "\u2581Please": 2319,
  "\u2581Since": 2320,
  "\u0d3f\u0d32\u0d41\u0d33\u0d4d\u0d33": 2321,
  "\u2581once": 2322,
  "\u0d2a\u0d4d\u0d2a\u0d46\u0d1f\u0d41\u0d28\u0d4d\u0d28\u0d41": 2323,
  "\u2581\u0d28\u0d3f\u0d31": 2324,
  "\u0d35\u0d33": 2325,
  "\u0d1f\u0d4d\u0d30": 2326,
  "\u25812001": 2327,
  "\u2581Vi": 2328,
  "02": 2329,
  "\u0d3e\u0d28\u0d3e\u0d23\u0d4d": 2330,
  "\u2581\u0d2e\u0d3e\u0d24\u0d4d\u0d30\u0d2e\u0d32\u0d4d\u0d32": 2331,
  "\u0d3f\u0d02\u0d17\u0d4d": 2332,
  "\u2581early": 2333,
  "\u2581\u0d15\u0d3f\u0d1f\u0d4d\u0d1f\u0d3f\u0d2f": 2334,
  "\u2581\u0d09\u0d23\u0d4d\u0d1f\u0d3e\u0d2f": 2335,
  "\u0d28\u0d2c\u0d3f\u0d2f\u0d47": 2336,
  "land": 2337,
  "\u2581else": 2338,
  "\u2581\u0d28\u0d47\u0d1f": 2339,
  "\u2581Egypt": 2340,
  "\u2581Joseph": 2341,
  "He": 2342,
  "\u0d19\u0d4d\u0d19\u0d3f": 2343,
  "ton": 2344,
  "\u2013": 2345,
  "\u2581\u0d2e\u0d41\u0d7b": 2346,
  "\u0d38\u0d3f\u0d28\u0d4d\u0d31\u0d46": 2347,
  "my": 2348,
  "\u0d2a\u0d4d\u0d2a\u0d4b": 2349,
  "\u2581guide": 2350,
  "\u2581\u0d38\u0d02\u0d2c\u0d28\u0d4d\u0d27\u0d3f\u0d1a\u0d4d\u0d1a\u0d4d": 2351,
  "\u2581moved": 2352,
  "\u2581disbelievers": 2353,
  "\u2581job": 2354,
  "\u2581\u0d26\u0d3e\u0d35\u0d40\u0d26\u0d4d": 2355,
  "\u2581Solomon": 2356,
  "\u2581possible": 2357,
  "\u0d2c\u0d4b": 2358,
  "\u2581\u0d24\u0d3f\u0d28\u0d4d\u0d28": 2359,
  "50": 2360,
  "\u2581Li": 2361,
  "\u0d3e\u0d28\u0d3e\u0d35\u0d3f\u0d32\u0d4d\u0d32": 2362,
  "\u2581\u0d05\u0d24\u0d3e\u0d23\u0d4d": 2363,
  "\u2581\u0d2a\u0d4d\u0d30\u0d15\u0d3e\u0d30\u0d02": 2364,
  "nd": 2365,
  "\u2581\u0d35\u0d3f\u0d36\u0d4d\u0d35\u0d38\u0d3f\u0d15\u0d4d\u0d15\u0d41\u0d15\u0d2f\u0d41\u0d02": 2366,
  "04": 2367,
  "\u0d30\u0d3e\u0d1c": 2368,
  "\u2581\u0d06\u0d26\u0d4d\u0d2f\u0d02": 2369,
  "\u2581\u0d2a\u0d4d\u0d30\u0d26\u0d47\u0d36": 2370,
  "\u0d3f\u0d28\u0d3f": 2371,
  "\u2581future": 2372,
  "\u2581\u0d24\u0d28\u0d4d\u0d28\u0d46\u0d2f\u0d3e\u0d15\u0d41\u0d28\u0d4d\u0d28\u0d41": 2373,
  "com": 2374,
  "ke": 2375,
  "\u2581Co": 2376,
  "\u2581wait": 2377,
  "\u2581\u0d24\u0d3e\u0d24\u0d4d": 2378,
  "\u2581Scriptures": 2379,
  "\u2581personal": 2380,
  "\u2581forgive": 2381,
  "\u2581\u0d05\u0d1f\u0d3f\u0d2e": 2382,
  "\u0d1f\u0d4b": 2383,
  "\u2581\u0d2a\u0d20\u0d3f\u0d2a\u0d4d\u0d2a\u0d3f\u0d15\u0d4d\u0d15": 2384,
  "\u2581\u0d38\u0d4d\u0d24\u0d4d\u0d30\u0d40": 2385,
  "\u2581following": 2386,
  "\u2581\u0d2f\u0d25\u0d3e\u0d7c\u0d25": 2387,
  "\u2581\u0d1c\u0d28\u0d02": 2388,
  "\u2581\u0d20": 2389,
  "\u0d3f\u0d2f\u0d3e\u0d2f": 2390,
  "\u2581promised": 2391,
  "\u2581Te": 2392,
  "\u2581accept": 2393,
  "\u0d24\u0d46": 2394,
  "\u0d2e\u0d3f\u0d32\u0d4d\u0d32\u0d3e\u0d24\u0d4d\u0d24": 2395,
  "\u0d47\u0d15\u0d4d\u0d15\u0d4d": 2396,
  "\u2581six": 2397,
  "\u2581\u0d05\u0d24\u0d3e\u0d2f\u0d24\u0d4d": 2398,
  "\u0d38\u0d4d\u0d25\u0d3e\u0d28": 2399,
  "\u2581mountains": 2400,
  "What": 2401,
  "].": 2402,
  "\u0d32\u0d48": 2403,
  "\u0d3f\u0d19\u0d4d": 2404,
  "\u0d2c\u0d41": 2405,
  "\u0d7c\u0d2a\u0d4d\u0d2a": 2406,
  "\u2581\u0d28\u0d47\u0d39\u0d02": 2407,
  "\u2581\u0d05\u0d24\u0d4d\u0d30": 2408,
  "\u2581\u0d30\u0d15\u0d4d\u0d37\u0d3f\u0d24\u0d3e\u0d35\u0d3f\u0d28\u0d4d\u0d31\u0d46": 2409,
  "\u2581Thou": 2410,
  "\u2581\u0d28\u0d2e\u0d41\u0d15\u0d4d\u0d15": 2411,
  "\u2581\u0d38\u0d4d\u0d25\u0d3e\u0d28": 2412,
  "\u0d28\u0d4d\u0d27": 2413,
  "\u25812004": 2414,
  "\u2581hell": 2415,
  "\u0d26\u0d4d\u0d26": 2416,
  "\u2581\u0d06\u0d24\u0d4d\u0d2e": 2417,
  "\u0d35\u0d41\u0d2e\u0d3e\u0d2f": 2418,
  "\u2581Sa": 2419,
  "\u2581\u0d38\u0d4d\u0d25\u0d32": 2420,
  "\u2581guided": 2421,
  "\u2581rain": 2422,
  "\u2581\u0d15\u0d41\u0d31\u0d1a\u0d4d\u0d1a\u0d41": 2423,
  "\u2581\u0d0e\u0d28\u0d4d\u0d24": 2424,
  "fi": 2425,
  "\u2581point": 2426,
  "\u0d35\u0d4b": 2427,
  "\u2581month": 2428,
  "\u0d3e\u0d2f\u0d3f\u0d30\u0d41\u0d28\u0d4d\u0d28": 2429,
  "\u0d3e\u0d23": 2430,
  "\u2581Such": 2431,
  "\u2581text": 2432,
  "\u0d15\u0d4d\u0d15\u0d41\u0d33\u0d4d\u0d33": 2433,
  "\u0d37\u0d4d\u0d23": 2434,
  "ard": 2435,
  "\u0d3f\u0d2a\u0d4d\u0d2a\u0d3e\u0d7b": 2436,
  "\u2581\u0d1a\u0d4d\u0d1a": 2437,
  "\u0d2f\u0d3f\u0d32\u0d41\u0d33\u0d4d\u0d33": 2438,
  "\u2581\u0d1c\u0d3f": 2439,
  "\u2581\u0d26\u0d47\u0d35": 2440,
  "\u258115,": 2441,
  "\u2581state": 2442,
  "X": 2443,
  "\u0d4d\u0d31\u0d46": 2444,
  "\u2581humans": 2445,
  "\u0d15\u0d4d\u0d15\u0d4a": 2446,
  "\u2581lot": 2447,
  "\u2581\u0d15\u0d4a\u0d23\u0d4d\u0d1f\u0d41\u0d35\u0d30": 2448,
  "\u0d4a\u0d28\u0d4d\u0d28": 2449,
  "\u0d67": 2450,
  "\u0d32\u0d40": 2451,
  "\u2581creation": 2452,
  "\u2581mighty": 2453,
  "\u0d2a\u0d4b\u0d2f\u0d3f": 2454,
  "\u2581\u0d2e\u0d41\u0d16": 2455,
  "\u25812007": 2456,
  "\u2581\u0d28\u0d3f\u0d7c\u0d24\u0d4d\u0d24": 2457,
  "\u0d2f\u0d3e\u0d15\u0d41\u0d28\u0d4d\u0d28\u0d41": 2458,
  "\u2581\u0d24\u0d41\u0d1f\u0d7c\u0d28\u0d4d\u0d28\u0d4d": 2459,
  "\u0d2f\u0d46\u0d32\u0d4d\u0d32\u0d3e\u0d02": 2460,
  "\u2581stop": 2461,
  "\u2581\u0d35\u0d3f\u0d36\u0d4d\u0d35\u0d3e\u0d38\u0d02": 2462,
  "\u0d28\u0d3f\u0d28\u0d4d\u0d28\u0d4d": 2463,
  "\u2581half": 2464,
  "\u2581\u0d2d\u0d30\u0d23": 2465,
  "\u2581\u0d36\u0d41\u0d36\u0d4d\u0d30\u0d42\u0d37": 2466,
  "\u0d19\u0d4d\u0d19\u0d7e\u0d15\u0d4d\u0d15\u0d4d": 2467,
  "05": 2468,
  "\u2581\u0d32\u0d2d\u0d3f\u0d1a\u0d4d\u0d1a\u0d41": 2469,
  "\u2581praise": 2470,
  "\u2581\u0d38\u0d43\u0d37\u0d4d\u0d1f\u0d3f": 2471,
  "\u2581\u0d0e\u0d28\u0d4d\u0d28\u0d4b\u0d1f\u0d41": 2472,
  "\u2581unbelievers": 2473,
  "ber": 2474,
  "\u2581offering": 2475,
  "\u2581start": 2476,
  "\u2581\u0d05\u0d35\u0d2f\u0d41\u0d1f\u0d46": 2477,
  "\u0d3f\u0d37\u0d4d\u0d1f": 2478,
  "\u2581questions": 2479,
  "\u2581Oh": 2480,
  "\u0d35\u0d7c\u0d15\u0d4d\u0d15\u0d41\u0d02": 2481,
  "\u2581\u0d05\u0d31\u0d3f\u0d1e\u0d4d\u0d1e": 2482,
  "\u2581\u0d15\u0d4a\u0d33\u0d4d\u0d33": 2483,
  ",\"": 2484,
  "\u2581THE": 2485,
  "\u2581\u0d2a\u0d4d\u0d30\u0d38\u0d4d": 2486,
  "\u0d47\u0d31\u0d4d\u0d31": 2487,
  "\u2581\u0d1a\u0d46\u0d32\u0d4d\u0d32": 2488,
  "\u2581wealth": 2489,
  "\u2581\u0d2e\u0d3e\u0d7c\u0d17": 2490,
  "\u0d26\u0d4d\u0d27\u0d4d\u0d2f": 2491,
  "\u0d24\u0d4d\u0d24\u0d47": 2492,
  "\u0d25\u0d3e": 2493,
  "\u2581Bu": 2494,
  "\u2581provide": 2495,
  "\u2581\u0d12\u0d28\u0d4d\u0d28\u0d41": 2496,
  "\u2581\u0d15\u0d41\u0d31\u0d3f\u0d1a\u0d4d\u0d1a\u0d4d": 2497,
  "\u2581\u0d2e\u0d3e\u0d24\u0d43\u0d15": 2498,
  "\u2581\u0d38\u0d19\u0d4d\u0d15\u0d40\u0d7c\u0d24\u0d4d\u0d24\u0d28\u0d02": 2499,
  "\u0d2c\u0d28\u0d4d\u0d27": 2500,
  "\u2581\u0d35\u0d46\u0d1a\u0d4d\u0d1a\u0d4d": 2501,
  "\u2581Take": 2502,
  "\u2581move": 2503,
  "If": 2504,
  "\u2581\u0d2a\u0d31\u0d4d\u0d31\u0d3f\u0d2f": 2505,
  "\u0d3e\u0d30": 2506,
  "\u2581gods": 2507,
  "\u0d7c\u0d2e": 2508,
  "\u2581\u0d35\u0d3e\u0d15\u0d4d\u0d15\u0d41\u0d15\u0d7e": 2509,
  "\u2581past": 2510,
  "\u0d4b\u0d1f\u0d46": 2511,
  "\u2581\u0d15\u0d33\u0d3f": 2512,
  "\u0d09": 2513,
  "\u0d3e\u0d38\u0d4d": 2514,
  "\u2581\u0d24\u0d4b\u0d28\u0d4d\u0d28\u0d41\u0d28\u0d4d\u0d28\u0d41": 2515,
  "\u2581afraid": 2516,
  "\u2581kept": 2517,
  "\u2581Indian": 2518,
  "\u2581\u0d26\u0d3f\u0d35\u0d38": 2519,
  "ite": 2520,
  "\u2581\u0d24\u0d3e\u0d34\u0d46": 2521,
  "\u0d3e\u0d7c": 2522,
  "ath": 2523,
  "\u2581\u0d35\u0d3f\u0d2d\u0d3e\u0d17": 2524,
  "\u0d2a\u0d41\u0d24\u0d4d\u0d30": 2525,
  "\u2581\u0d2a\u0d24\u0d3f": 2526,
  "\u0d3e\u0d28\u0d4b": 2527,
  "\u0d2e\u0d4d": 2528,
  "\u0d38\u0d46": 2529,
  "\u0d2f\u0d3f\u0d1f": 2530,
  "\u2581started": 2531,
  "\u2581\u0d2a\u0d47": 2532,
  "\u2581Get": 2533,
  "\u2581\u0d15\u0d3e\u0d23\u0d3e\u0d02": 2534,
  "\u2581\u0d2b": 2535,
  "\u2581\u0d28\u0d47\u0d39": 2536,
  "\u2581Ga": 2537,
  "\u0d1a\u0d46\u0d2f\u0d4d": 2538,
  "\u0d15\u0d4d\u0d15\u0d7e": 2539,
  "\u0d30\u0d3f\u0d1a\u0d4d\u0d1a": 2540,
  "\u2581st": 2541,
  "\u2581\u0d05\u0d35\u0d28\u0d41": 2542,
  "\u2581\u0d15\u0d4d\u0d37\u0d2e": 2543,
  "\u2581\u0d30\u0d47\u0d16": 2544,
  "\u2581learned": 2545,
  "\u0d35\u0d30\u0d3e\u0d23\u0d4d": 2546,
  "\u2581lived": 2547,
  "\u2581\u0d2e\u0d28\u0d38\u0d4d\u0d38\u0d3f\u0d32\u0d3e\u0d15\u0d4d\u0d15": 2548,
  "\u0d17\u0d4d\u0d17": 2549,
  "40": 2550,
  "\u2581provided": 2551,
  "\u0d15\u0d4d\u0d1f": 2552,
  "\u0d2e\u0d30": 2553,
  "\u2581\u0d0e\u0d34\u0d41\u0d24\u0d3f\u0d2f": 2554,
  "\u2581Hereafter": 2555,
  "\u2581\u0d24\u0d3e\u0d34\u0d4d": 2556,
  "\u2581\u0d2f\u0d42": 2557,
  "It": 2558,
  "\u2581\u0d38\u0d2e\u0d3e\u0d27\u0d3e\u0d28": 2559,
  "\u2581doesn": 2560,
  "\u2581\u0d06\u0d33\u0d41\u0d15\u0d33\u0d46": 2561,
  "\u2581\u0d0a": 2562,
  "\u2581\u0d15\u0d23\u0d4d\u0d23": 2563,
  "AR": 2564,
  "ens": 2565,
  "\u2581forgiveness": 2566,
  "\u2581priest": 2567,
  "\u2581taught": 2568,
  "\u2581\u0d35\u0d3e\u0d15\u0d4d\u0d15\u0d41": 2569,
  "ted": 2570,
  "\u2581easy": 2571,
  "\u2581eye": 2572,
  "\u2581\u0d2a\u0d23\u0d3f": 2573,
  "\u2581\u0d0e\u0d28\u0d4d\u0d28\u0d40": 2574,
  "\u0d38\u0d4b": 2575,
  "\u0d3f\u0d15\u0d4d\u0d15\u0d41\u0d15\u0d2f\u0d41\u0d02": 2576,
  "\u2581understanding": 2577,
  "\u0d3f\u0d32\u0d4d\u0d32\u0d46\u0d19\u0d4d\u0d15\u0d3f\u0d7d": 2578,
  "\u2581\u0d2a\u0d57\u0d32\u0d4a\u0d38\u0d4d": 2579,
  "\u2581answered": 2580,
  "\u2581\u0d28\u0d7d\u0d15\u0d2a\u0d4d\u0d2a\u0d46\u0d1f\u0d4d\u0d1f": 2581,
  "\u0d38\u0d47": 2582,
  "\u2581\u0d35\u0d47\u0d26": 2583,
  "\u0d30\u0d3e\u0d2f\u0d3f": 2584,
  "\u2581\u0d06\u0d15\u0d3e\u0d36": 2585,
  "\u2581\u0d24\u0d4d\u0d30\u0d40": 2586,
  "\u2581\u0d05\u0d2f\u0d1a\u0d4d\u0d1a\u0d41": 2587,
  "\u2581\u0d24\u0d41\u0d1f\u0d19\u0d4d\u0d19": 2588,
  "\u0d36\u0d3f\u0d15\u0d4d\u0d37": 2589,
  "\u2581o": 2590,
  "\u2581continue": 2591,
  "\u2581\u0d15\u0d3e\u0d32\u0d02": 2592,
  "\u2581\u0d24\u0d4b": 2593,
  "\u0d32\u0d4d": 2594,
  "\u2581enjoy": 2595,
  "\u2581judge": 2596,
  "\u2581greater": 2597,
  "\u2581Hey": 2598,
  "\u2581\u0d28\u0d7d\u0d15\u0d41\u0d28\u0d4d\u0d28\u0d41": 2599,
  "\u25815.": 2600,
  "\u2581\u0d15\u0d3e\u0d1f\u0d4d\u0d1f": 2601,
  "\u0d35\u0d3f\u0d27": 2602,
  "\u0d24\u0d4d\u0d24\u0d3f\u0d7d\u0d28\u0d3f\u0d28\u0d4d\u0d28\u0d41": 2603,
  "\u2581\u0d35\u0d30\u0d42": 2604,
  "\u2581Dur": 2605,
  "\u2581mouth": 2606,
  "\u2581\u0d2d\u0d3e\u0d35\u0d3f": 2607,
  "\u2581authority": 2608,
  "\u2581\u0d31\u0d3e": 2609,
  "\u2581\u0d15\u0d30\u0d41\u0d23": 2610,
  "\u2581\u0d28\u0d3f\u0d2e\u0d3f\u0d24\u0d4d\u0d24\u0d02": 2611,
  "\u2581\u0d2a\u0d4a\u0d31\u0d41\u0d15\u0d4d\u0d15\u0d41\u0d28\u0d4d\u0d28\u0d35\u0d28\u0d41\u0d02": 2612,
  "\u2581ago": 2613,
  "\u2581blessings": 2614,
  "\u2581destroy": 2615,
  "\u2581en": 2616,
  "\u0d2f\u0d41\u0d2e": 2617,
  "\u0d3e\u0d32\u0d4b": 2618,
  "\u2581Adam": 2619,
  "\u2581mine": 2620,
  "\u2581door": 2621,
  "\u2581fully": 2622,
  "\u0d2a\u0d4d\u0d2a\u0d31\u0d4d\u0d31\u0d3f": 2623,
  "\u0d36\u0d3e\u0d38\u0d4d": 2624,
  "\u2581\u0d2a\u0d3f\u0d1f\u0d3f\u0d15\u0d4d\u0d15": 2625,
  "\u2581\u0d15\u0d3e\u0d7c": 2626,
  "\u2581\u0d2a\u0d41\u0d31\u0d2e\u0d46": 2627,
  "\u0d35\u0d28\u0d4d\u0d31\u0d46": 2628,
  "\u2581established": 2629,
  "\u2581\u0d28\u0d3f\u0d28\u0d4d\u0d28\u0d4b\u0d1f\u0d4d": 2630,
  "\u2581\u0d12\u0d30\u0d3e\u0d7e": 2631,
  "\u2581St": 2632,
  "\u0d2e\u0d4d\u0d2a\u0d41": 2633,
  "\u0d2f\u0d3f\u0d32\u0d47\u0d15\u0d4d\u0d15\u0d41": 2634,
  "\u2581giving": 2635,
  "\u2581Great": 2636,
  "\u2581\u0d1f\u0d3f": 2637,
  "\u2581run": 2638,
  "\u2581taking": 2639,
  "\u2581\u0d24\u0d3e\u0d19\u0d4d\u0d15\u0d7e": 2640,
  "\u2581ourselves": 2641,
  "\u2581\u0d28\u0d3e\u0d25\u0d3e": 2642,
  "\u2581\u0d15\u0d4d\u0d15\u0d41\u0d28\u0d4d\u0d28": 2643,
  "one": 2644,
  "\u0d31\u0d3f\u0d7d": 2645,
  "atic": 2646,
  "\u2581\u0d0e\u0d28\u0d4d\u0d28\u0d4b\u0d1f\u0d4d": 2647,
  "\u2581sister": 2648,
  "\u2581\u0d28\u0d36\u0d3f\u0d2a\u0d4d\u0d2a\u0d3f\u0d15\u0d4d\u0d15": 2649,
  "\u2581\u0d28\u0d3e\u0d36\u0d02": 2650,
  "pa": 2651,
  "\u0d2e\u0d3e\u0d15\u0d4d\u0d15\u0d3f\u0d2f": 2652,
  "\u2581\u0d1e\u0d19\u0d4d\u0d19\u0d33": 2653,
  "\u0d35\u0d30\u0d3f\u0d7d": 2654,
  "\u2581sir": 2655,
  "\u2581\u0d1a\u0d3f\u0d24\u0d4d\u0d30\u0d19\u0d4d\u0d19\u0d7e": 2656,
  "\u2581cities": 2657,
  "\u0d15\u0d4d\u0d15\u0d42": 2658,
  "per": 2659,
  "\u0d15\u0d30\u0d3f\u0d1a\u0d4d\u0d1a": 2660,
  "\u2581girl": 2661,
  "\u0d19\u0d4d\u0d19\u0d33\u0d3f\u0d32": 2662,
  "\u2581\u0d28\u0d3e\u0d32\u0d41": 2663,
  "\u2581\u0d2a\u0d4d\u0d30\u0d24\u0d4d\u0d2f\u0d47\u0d15": 2664,
  "\u0d3f\u0d15\u0d4d": 2665,
  "\u2581\u0d05\u0d28": 2666,
  "\u2581\u0d05\u0d35\u0d38\u0d4d\u0d25": 2667,
  "\u2581relationship": 2668,
  "\u0d1f\u0d41\u0d15\u0d4d\u0d15": 2669,
  "\u2581experience": 2670,
  "\u2581Matthew": 2671,
  "\u2581felt": 2672,
  "\u2581\u0d1c\u0d28\u0d3f\u0d1a\u0d4d\u0d1a": 2673,
  "\u2581\u0d24\u0d47": 2674,
  "\u0d28\u0d3f\u0d7d": 2675,
  "\u0d68": 2676,
  "\u0d2f\u0d4b\u0d17": 2677,
  "\u0d3e\u0d23\u0d46\u0d19\u0d4d\u0d15\u0d3f\u0d7d": 2678,
  "\u2581field": 2679,
  "\u2581\u0d31\u0d46": 2680,
  "\u2581\u0d09\u0d31\u0d2a\u0d4d\u0d2a\u0d3e\u0d2f\u0d41\u0d02": 2681,
  "\u2581\u0d2d\u0d2f": 2682,
  "\u2581conduct": 2683,
  "\u2581myself": 2684,
  "\u2581\u0d15\u0d47\u0d1f\u0d4d\u0d1f\u0d41": 2685,
  "\u0d7c\u0d24\u0d4d\u0d24\u0d3f": 2686,
  "\u2581\u0d38\u0d2e\u0d2f\u0d24\u0d4d\u0d24\u0d4d": 2687,
  "\u0d2b\u0d3f": 2688,
  "\u2581\u0d30\u0d23\u0d4d\u0d1f": 2689,
  "\u2581boy": 2690,
  "\u2581\u0d27\u0d28": 2691,
  "\u2581\u0d38\u0d3e\u0d15\u0d4d\u0d37\u0d4d\u0d2f\u0d02": 2692,
  "\u2581\u0d38\u0d4d\u0d35\u0d40\u0d15\u0d30\u0d3f\u0d1a\u0d4d\u0d1a": 2693,
  "\u2581Mo": 2694,
  "\u2581\u0d1a\u0d3f": 2695,
  "\u2581\u0d30\u0d15\u0d4d\u0d24": 2696,
  "\u2581\u0d35\u0d41\u0d02": 2697,
  "\u2581\u0d09\u0d23\u0d4d\u0d1f\u0d3e\u0d15": 2698,
  "tra": 2699,
  "\u2581\u0d15\u0d3e\u0d23\u0d41\u0d15": 2700,
  "\u0d19\u0d4d\u0d19\u0d7e\u0d15\u0d4d\u0d15\u0d41": 2701,
  "\u2581\u0d2b\u0d32\u0d02": 2702,
  "\u2581\u0d38\u0d2e\u0d2f": 2703,
  "\u2581wives": 2704,
  "\u0d2a\u0d4d\u0d2a\u0d46\u0d1f\u0d41\u0d02": 2705,
  "\u0d41\u0d15\u0d33\u0d41\u0d1f\u0d46": 2706,
  "\u2581build": 2707,
  "\u2581sacrifice": 2708,
  "\u2581\u0d1c\u0d4b": 2709,
  "\u0d2f\u0d4d\u0d15\u0d4d\u0d15\u0d41": 2710,
  "les": 2711,
  "\u2581\u0d15\u0d34\u0d3f\u0d2f\u0d41\u0d28\u0d4d\u0d28": 2712,
  "\u25813,": 2713,
  "\u2581clean": 2714,
  "\u2581kindness": 2715,
  "\u2581\u0d12\u0d1f\u0d4d\u0d1f\u0d41\u0d02": 2716,
  "\u2581\u0d38\u0d47": 2717,
  "\u0d15\u0d4a\u0d23\u0d4d\u0d1f": 2718,
  "\u2581Does": 2719,
  "\u2581\u0d2e\u0d48": 2720,
  "\u0d15\u0d4d\u0d38\u0d4d": 2721,
  "\u2581\u0d35\u0d28": 2722,
  "\u2581\u0d06\u0d30\u0d3e\u0d23\u0d4d": 2723,
  "\u2581\u0d35\u0d3e\u0d19\u0d4d\u0d19": 2724,
  "\u2581built": 2725,
  "\u2581information": 2726,
  "\u2581problems": 2727,
  "\u2581wish": 2728,
  "\u2581\u0d07\u0d1f\u0d2f\u0d3f\u0d7d": 2729,
  "\u2581form": 2730,
  "\u2581\u0d06\u0d26\u0d4d\u0d2f\u0d24\u0d4d\u0d24\u0d46": 2731,
  "\u2581\u0d35\u0d40": 2732,
  "\u258110.": 2733,
  "\u2581million": 2734,
  "ru": 2735,
  "\u0d15\u0d7c": 2736,
  "\u0d40\u0d15\u0d30\u0d3f\u0d15\u0d4d\u0d15": 2737,
  "\u2581\u0d1c\u0d40\u0d35\u0d3f": 2738,
  "\u2581\u0d24\u0d24\u0d4d": 2739,
  "\u2581\u0d2e\u0d39\u0d24\u0d4d\u0d24\u0d3e\u0d2f": 2740,
  "\u0d46\u0d1f\u0d41\u0d24\u0d4d\u0d24": 2741,
  "\u2581spend": 2742,
  "\u2581\u0d2e\u0d3e\u0d7c\u0d17\u0d24\u0d4d\u0d24\u0d3f\u0d7d": 2743,
  "\u0d47\u0d37\u0d7b": 2744,
  "\u2581\u0d05\u0d35\u0d15\u0d3e\u0d36": 2745,
  "\u2581\u0d1a\u0d40\u0d24\u0d4d\u0d24": 2746,
  "My": 2747,
  "\u2581elders": 2748,
  "\u2581sky": 2749,
  "pi": 2750,
  "\u0d35\u0d3f\u0d7d": 2751,
  "\u2581\u0d15\u0d33\u0d4d\u0d33\u0d02": 2752,
  "12": 2753,
  "\u2581Here": 2754,
  "der": 2755,
  "ency": 2756,
  "\u0d2b\u0d4b": 2757,
  "\u2581\u0d09\u0d24\u0d4d": 2758,
  "\u0d15\u0d4d\u0d15\u0d3e\u0d30\u0d7b": 2759,
  "\u0d24\u0d4d\u0d24\u0d3f\u0d32\u0d3e\u0d23\u0d4d": 2760,
  "\u2581&": 2761,
  "\u0d28\u0d4d\u0d2e\u0d3e\u0d30\u0d46": 2762,
  "\u2581\u0d05\u0d24\u0d3f\u0d28\u0d4d\u0d28\u0d41": 2763,
  "EN": 2764,
  "\u2581\u0d28\u0d47\u0d1f\u0d3f": 2765,
  "\u2581\u0d2e\u0d41\u0d2e\u0d4d\u0d2a\u0d3f\u0d7d": 2766,
  "\u2581\u0d05\u0d30": 2767,
  "\u0d35\u0d3f\u0d28\u0d4d\u0d31\u0d46": 2768,
  "\u0d24\u0d3f\u0d30\u0d3f": 2769,
  "\u2581hast": 2770,
  "\u2581\u0d07\u0d24\u0d4d\u0d24\u0d30": 2771,
  "\u2581\u0d05\u0d31\u0d3f\u0d2f\u0d41\u0d15": 2772,
  "\u2581\u0d26\u0d47\u0d36": 2773,
  "\u2581\u0d21\u0d46": 2774,
  "\u258137": 2775,
  "\u25818,": 2776,
  "\u2581\u0d2c\u0d3e\u0d32": 2777,
  "\u25812,": 2778,
  "IN": 2779,
  "\u0d38\u0d40": 2780,
  "\u2581address": 2781,
  "\u2581Z": 2782,
  "\u2581\u0d38\u0d2d": 2783,
  "\u0d32\u0d4d\u0d32\u0d3e": 2784,
  "\u2581special": 2785,
  "\u2581\u0d07\u0d28\u0d4d\u0d28\u0d41": 2786,
  "\u2581\u0d28\u0d02": 2787,
  "\u2581\u0d2a\u0d3f\u0d7b": 2788,
  "\u2581offer": 2789,
  "bo": 2790,
  "\u2581blind": 2791,
  "\u0d1e": 2792,
  "\u2581teach": 2793,
  "\u2581passed": 2794,
  "\u2581\u0d06\u0d2f\u0d3f\u0d30\u0d3f\u0d15\u0d4d\u0d15": 2795,
  "\u2581\u0d33": 2796,
  "\u2581\u0d35\u0d47\u0d32": 2797,
  "\u0d38\u0d4d\u0d35": 2798,
  "\u2581followed": 2799,
  "\u2581truly": 2800,
  "\u2581\u0d35\u0d15": 2801,
  "\u2581harm": 2802,
  "\u2581\u0d2a\u0d4d\u0d2a\u0d46": 2803,
  "\u0d3f\u0d2f\u0d3f\u0d30\u0d3f\u0d15\u0d4d\u0d15\u0d41\u0d28\u0d4d\u0d28\u0d41": 2804,
  "\u2581chosen": 2805,
  "\u2581\u0d38\u0d02\u0d36\u0d2f\u0d2e\u0d3f\u0d32\u0d4d\u0d32": 2806,
  "\u2581needs": 2807,
  "\u0d17\u0d4d\u0d30\u0d39": 2808,
  "Do": 2809,
  "\u0d2e\u0d3e\u0d2f\u0d41\u0d02": 2810,
  "\u2581Hell": 2811,
  "\u0d2c\u0d46": 2812,
  "\u2581term": 2813,
  "\u2581\u0d2a\u0d34": 2814,
  "\u2581\u0d05\u0d1f\u0d3f\u0d38\u0d4d\u0d25\u0d3e\u0d28": 2815,
  "os": 2816,
  "\u2581religious": 2817,
  "\u2581\u0d15\u0d2f\u0d4d\u0d2f\u0d3f\u0d7d": 2818,
  "\u2581least": 2819,
  "\u0d7c\u0d28\u0d4d\u0d28": 2820,
  "\u2581\u0d15\u0d1f\u0d28\u0d4d\u0d28\u0d41": 2821,
  "\u2581\u0d1c\u0d28\u0d41\u0d35\u0d30\u0d3f": 2822,
  "\u0d15\u0d4a\u0d23\u0d4d\u0d1f\u0d3f\u0d30\u0d3f\u0d15\u0d4d\u0d15\u0d41\u0d28\u0d4d\u0d28": 2823,
  "\u2581Saul": 2824,
  "\u2581\u0d38\u0d3e\u0d15\u0d4d\u0d37\u0d3f\u0d15\u0d7e": 2825,
  "\u0d2c\u0d4d\u0d30": 2826,
  "\u2581enemy": 2827,
  "\u2581\u0d0e\u0d7b": 2828,
  "\u0d0e\u0d38\u0d4d": 2829,
  "\u2581\u0d1c\u0d46": 2830,
  "\u2581\u0d24\u0d4d\u0d24": 2831,
  "\u2581\u0d30\u0d4b\u0d17": 2832,
  "gu": 2833,
  "\u2581\u0d35\u0d3e\u0d17\u0d4d": 2834,
  "\u2581perfect": 2835,
  "\u2581reach": 2836,
  "\u2581\u0d05\u0d31\u0d3f\u0d2f\u0d3e\u0d02": 2837,
  "\u2581\u0d2a\u0d15\u0d4d\u0d15\u0d7d": 2838,
  "\u0d2f\u0d3f\u0d7d\u0d28\u0d3f\u0d28\u0d4d\u0d28\u0d41": 2839,
  "men": 2840,
  "\u0d6a": 2841,
  "\u2581\u0d2a\u0d23\u0d02": 2842,
  "\u2581\u0d38\u0d28\u0d4d\u0d24\u0d4b\u0d37\u0d02": 2843,
  "\u0d28\u0d4d\u0d2e\u0d3e\u0d30\u0d41\u0d1f\u0d46": 2844,
  "\u0d3f\u0d24\u0d3e": 2845,
  "\u0d3f\u0d28\u0d4b\u0d1f\u0d41": 2846,
  "\u2581needed": 2847,
  "\u0d4b\u0d1f\u0d41\u0d15\u0d42\u0d1f\u0d46": 2848,
  "\u2581percent": 2849,
  "\u25812000": 2850,
  "\u25817.": 2851,
  "\u2581moon": 2852,
  "\u2581\u0d05\u0d35\u0d7c\u0d15\u0d4d\u0d15": 2853,
  "\u2581\u0d15\u0d34\u0d3f\u0d1e\u0d4d\u0d1e\u0d41": 2854,
  "\u0d4b\u0d1f\u0d41\u0d02": 2855,
  "\u2581\u0d28\u0d47\u0d1f\u0d3f\u0d2f": 2856,
  "\u2581October": 2857,
  "\u2581na": 2858,
  "\u0d2a\u0d4d\u0d2a\u0d3f\u0d1a\u0d4d\u0d1a\u0d41": 2859,
  "\u2581fruit": 2860,
  "\u2581judgment": 2861,
  "\u2581Noah": 2862,
  "\u0d1f\u0d3e": 2863,
  "\u2581gonna": 2864,
  "\u2581\u0d05\u0d27\u0d3f\u0d15\u0d3e\u0d30": 2865,
  "\u2581\u0d24\u0d4b\u0d28\u0d4d\u0d28\u0d3f": 2866,
  "\u0d23\u0d2e\u0d46\u0d28\u0d4d\u0d28\u0d4d": 2867,
  "\u2581Thank": 2868,
  "\u2581\u0d05\u0d35\u0d38\u0d3e\u0d28": 2869,
  "\u2581\u0d05\u0d27\u0d3f\u0d15\u0d02": 2870,
  "\u2581\u0d2c\u0d32": 2871,
  "\u2581\u0d15\u0d42\u0d1f\u0d4d\u0d1f\u0d24\u0d4d\u0d24\u0d3f\u0d32": 2872,
  "\u2581avoid": 2873,
  "\u2581ground": 2874,
  "\u2581\u0d2e\u0d28\u0d4d\u0d24\u0d4d\u0d30": 2875,
  "\u0d24\u0d4d\u0d24\u0d30": 2876,
  "\u2581dwell": 2877,
  "\u2581\u0d21\u0d4b": 2878,
  "\u2581\u0d27\u0d3e\u0d30\u0d3e\u0d33\u0d02": 2879,
  "\u2581looking": 2880,
  "\u2581\u0d15\u0d7d\u0d2a\u0d28": 2881,
  "\u2581\u0d1e\u0d19\u0d4d\u0d19\u0d7e\u0d15\u0d4d\u0d15\u0d41": 2882,
  "\u2581Resurrection": 2883,
  "\u2581\u0d1c\u0d4d\u0d1e\u0d3e\u0d28": 2884,
  "\u2581\u0d35\u0d3f\u0d1f\u0d4d\u0d1f": 2885,
  "\u0d2a\u0d42": 2886,
  "\u0d2a\u0d4a": 2887,
  "\u2581\u0d38\u0d02\u0d2d\u0d35\u0d3f\u0d15\u0d4d\u0d15": 2888,
  "\u0d15\u0d4d\u0d15\u0d33": 2889,
  "\u2581\u0d28\u0d3e\u0d36": 2890,
  "har": 2891,
  "\u2581\u0d2f\u0d3f\u0d7d": 2892,
  "\u2581\u0d05\u0d28\u0d41\u0d17\u0d4d\u0d30\u0d39": 2893,
  "\u0d41\u0d23\u0d4d\u0d1f\u0d4b": 2894,
  "\u2581\u0d28\u0d3f\u0d19\u0d4d\u0d19\u0d33\u0d4b\u0d1f\u0d41": 2895,
  "\u2581\u0d05\u0d28\u0d4d\u0d24": 2896,
  "\u2581\u0d26\u0d3f\u0d28": 2897,
  "\u2581error": 2898,
  "\u2581\u0d2a\u0d26\u0d35\u0d3f": 2899,
  "\u2581population": 2900,
  "\u2581\u0d15\u0d1f\u0d41\u0d24\u0d4d\u0d24": 2901,
  "\u2581\u0d15\u0d3e\u0d30\u0d23": 2902,
  "\u2581\u0d35\u0d46\u0d1a\u0d4d\u0d1a\u0d41": 2903,
  "gen": 2904,
  "\u2581\u0d09\u0d2f\u0d3f\u0d7c\u0d24\u0d4d\u0d24\u0d46\u0d34\u0d41\u0d28\u0d4d\u0d28\u0d47\u0d7d": 2905,
  "\u258136": 2906,
  "\u2581\u0d2a\u0d4d\u0d2a\u0d3f": 2907,
  "\u2581\u0d2e\u0d24\u0d4d\u0d24\u0d3e\u0d2f\u0d3f": 2908,
  "Allah": 2909,
  "ap": 2910,
  "\u0d26\u0d48\u0d35": 2911,
  "\u0d2f\u0d41\u0d2e\u0d3e\u0d2f\u0d3f": 2912,
  "\u0d32\u0d02": 2913,
  "\u0d3e\u0d28\u0d3e\u0d15\u0d41\u0d02": 2914,
  "\u2581\u0d0e\u0d24\u0d4d\u0d24\u0d3f": 2915,
  "\u2581\u0d12\u0d15\u0d4d": 2916,
  "son": 2917,
  "\u0d26\u0d40": 2918,
  "\u0d46\u0d28\u0d4d\u0d28\u0d41\u0d02": 2919,
  "\u2581\u0d15\u0d32": 2920,
  "\u2581\u0d28\u0d47\u0d30": 2921,
  "\u2581besides": 2922,
  "\u2581\u0d05\u0d35\u0d28\u0d3e\u0d23\u0d4d": 2923,
  "\u2581k": 2924,
  "\u2581\u0d28\u0d1f\u0d24\u0d4d\u0d24\u0d3f\u0d2f": 2925,
  "\u0d37\u0d7b": 2926,
  "\u2581enemies": 2927,
  "\u2581\u0d35\u0d3f\u0d38\u0d4d": 2928,
  "\u0d24\u0d41\u0d15\u0d4a\u0d23\u0d4d\u0d1f\u0d41": 2929,
  "\u2581\u0d15\u0d33\u0d2f": 2930,
  "\u2581beautiful": 2931,
  "\u2581members": 2932,
  "\u2581\u0d15\u0d4a\u0d33\u0d4d\u0d33\u0d41\u0d15": 2933,
  "\u2581\u0d26\u0d2f": 2934,
  "\u0d2a\u0d46\u0d1f\u0d4d\u0d1f": 2935,
  "\u0d7b\u0d21": 2936,
  "\u25818.": 2937,
  "ice": 2938,
  "\u0d15\u0d3e\u0d32\u0d02": 2939,
  "\u0d41\u0d28\u0d4d\u0d28\u0d41\u0d35\u0d46\u0d19\u0d4d\u0d15\u0d3f\u0d7d": 2940,
  "\u2581\u0d26\u0d41": 2941,
  "\u25812003": 2942,
  "\u2581manifest": 2943,
  "\u2581\u0d15\u0d42\u0d1f": 2944,
  "\u0d41\u0d15\u0d33\u0d46": 2945,
  "ions": 2946,
  "\u0d3f\u0d1f\u0d4d\u0d1f\u0d41\u0d33\u0d4d\u0d33\u0d24\u0d4d": 2947,
  "\u25812002": 2948,
  "\u2581\u0d0e\u0d28\u0d4d\u0d28\u0d24\u0d4d": 2949,
  "\u2581\u0d2d\u0d3e\u0d30": 2950,
  "\u2581anointed": 2951,
  "\u0d2f\u0d4b\u0d1f\u0d41": 2952,
  "\u258160": 2953,
  "\u2581\u0d2e\u0d28\u0d38\u0d4d\u0d38\u0d3f\u0d32\u0d3e\u0d15\u0d4d\u0d15\u0d41\u0d28\u0d4d\u0d28": 2954,
  "\u2581\u0d2a\u0d4d\u0d30\u0d24\u0d4d\u0d2f\u0d3e\u0d36": 2955,
  "\u2581ancient": 2956,
  "\u2581\u0d2e\u0d3f\u0d15\u0d1a\u0d4d\u0d1a": 2957,
  "\u2581\u0d38\u0d4d\u0d25\u0d3f\u0d30": 2958,
  "\u2581\u0d15\u0d41\u0d31\u0d1a\u0d4d\u0d1a\u0d4d": 2959,
  "\u2581\u0d26\u0d47\u0d36\u0d40\u0d2f": 2960,
  "\u2581\u0d05\u0d32\u0d4d\u0d32\u0d3e\u0d39\u0d41\u0d35\u0d3f\u0d7d": 2961,
  "\u2581\u0d38\u0d46\u0d2a\u0d4d": 2962,
  "\u2581\u0d07\u0d37\u0d4d\u0d1f": 2963,
  "\u2581Jo": 2964,
  "\u2581\u0d38\u0d3e\u0d27\u0d3e\u0d30\u0d23": 2965,
  "vo": 2966,
  "\u2581\u0d30\u0d15\u0d4d\u0d37\u0d3f\u0d15\u0d4d\u0d15": 2967,
  "\u0d21\u0d4b": 2968,
  "\u0d3f\u0d15\u0d4d\u0d15\u0d3e\u0d7b": 2969,
  "\u0d4b\u0d1f\u0d4d\u0d1f\u0d41": 2970,
  "\u2581\u0d1c\u0d40\u0d35": 2971,
  "\u2581\u0d28\u0d4b\u0d15\u0d4d\u0d15\u0d42": 2972,
  "\u2581desires": 2973,
  "\u2581lies": 2974,
  "\u2581\u0d2e\u0d30\u0d3f\u0d1a\u0d4d\u0d1a\u0d41": 2975,
  "\u2581\u0d2a\u0d4d\u0d30\u0d35\u0d7c\u0d24\u0d4d\u0d24\u0d28": 2976,
  "\u2581apostles": 2977,
  "\u2581false": 2978,
  "\u0d24\u0d4d\u0d24\u0d3f\u0d7b": 2979,
  "\u2581belongs": 2980,
  "\u2581\u0d38\u0d24\u0d4d\u0d2f\u0d35\u0d3f\u0d36\u0d4d\u0d35\u0d3e\u0d38\u0d3f\u0d15\u0d33": 2981,
  "\u0d28\u0d4d\u0d28\u0d3e": 2982,
  "\u2581thinking": 2983,
  "\u0d24\u0d4d\u0d24\u0d3f\u0d7d\u0d28\u0d3f\u0d28\u0d4d\u0d28\u0d4d": 2984,
  "\u2581Sp": 2985,
  "\u2581story": 2986,
  "\u0d2f\u0d4a\u0d15\u0d4d\u0d15\u0d46": 2987,
  "\u0d3e\u0d2f\u0d4d": 2988,
  "\u2581War": 2989,
  "\u2581Holy": 2990,
  "\u2581army": 2991,
  "\u25812006": 2992,
  "\u2581deliver": 2993,
  "\u0d2f\u0d41\u0d1f\u0d46\u0d2f\u0d41\u0d02": 2994,
  "\u0d15\u0d4a": 2995,
  "\u2581gift": 2996,
  "\u2581third": 2997,
  "\u2581towards": 2998,
  "\u0d2a\u0d4d\u0d2a\u0d3e\u0d7b": 2999,
  "\u2581Like": 3000,
  "\u2581\u0d13\u0d7c\u0d15\u0d4d\u0d15\u0d41\u0d15": 3001,
  "\u2581\u0d2c\u0d3e\u0d27\u0d3f\u0d1a\u0d4d\u0d1a": 3002,
  "\u2581\u0d28\u0d1f\u0d24\u0d4d\u0d24\u0d3f": 3003,
  "\u2581\u0d38\u0d2e\u0d41\u0d26\u0d3e\u0d2f": 3004,
  "\u0d15\u0d7e\u0d15\u0d4d\u0d15\u0d41": 3005,
  "\u2581history": 3006,
  "\u2581April": 3007,
  "ns": 3008,
  "\u258138": 3009,
  "\u2581painful": 3010,
  "\u2581ready": 3011,
  "\u2581\u0d15\u0d41\u0d31\u0d4d\u0d31": 3012,
  "\u0d35\u0d41\u0d2e\u0d3f\u0d32\u0d4d\u0d32": 3013,
  "\u0d39\u0d4b": 3014,
  "\u2581Ha": 3015,
  "\u0d35\u0d30\u0d46\u0d2f\u0d41\u0d02": 3016,
  "\u2581evidence": 3017,
  "\u2581\u0d35\u0d3f\u0d1c\u0d2f\u0d02": 3018,
  "\u0d24\u0d4d\u0d24\u0d41\u0d02": 3019,
  "\u2581\u0d28\u0d37\u0d4d\u0d1f": 3020,
  "\u2581Give": 3021,
  "\u2581prepared": 3022,
  "\u2581single": 3023,
  "\u2581\u0d05\u0d2a": 3024,
  "all": 3025,
  "\u2581\u0d05\u0d31\u0d3f\u0d35": 3026,
  "\u0d7c\u0d23": 3027,
  "\u2581\u0d2a\u0d4d\u0d30\u0d24\u0d3f\u0d2b\u0d32": 3028,
  "\u2581Bo": 3029,
  "\u2581\u0d36\u0d30\u0d40\u0d30": 3030,
  "\u0d24\u0d3e\u0d15\u0d41\u0d28\u0d4d\u0d28\u0d41": 3031,
  "\u2581everyone": 3032,
  "\u0d7c\u0d15\u0d4d\u0d15": 3033,
  "\u258112:": 3034,
  "\u2581Dr": 3035,
  "\u2581\u0d35\u0d1a\u0d28\u0d02": 3036,
  "\u2581\u0d38\u0d4d\u0d35\u0d28\u0d4d\u0d24": 3037,
  "\u2581public": 3038,
  "\u2581rich": 3039,
  "\u2581\u0d35\u0d30\u0d41\u0d28\u0d4d\u0d28\u0d41": 3040,
  "\u0d2f\u0d4a": 3041,
  "\u2581\u0d24\u0d46\u0d31\u0d4d\u0d31": 3042,
  "\u0d19\u0d4d\u0d19\u0d33\u0d46\u0d2f\u0d41\u0d02": 3043,
  "\u0d41\u0d15\u0d2f\u0d3e\u0d23\u0d4b": 3044,
  "\u2581foot": 3045,
  "\u2581\u0d2e\u0d28": 3046,
  "\u0d34\u0d41": 3047,
  "\u2581led": 3048,
  "ect": 3049,
  "\u2581Mu": 3050,
  "\u2581Jacob": 3051,
  "\u2581wants": 3052,
  "\u0d27\u0d4d\u0d2f": 3053,
  "\u0d35\u0d3e\u0d2f": 3054,
  "\u2581\u0d15\u0d4d\u0d32": 3055,
  "\u2581\u0d1a\u0d46\u0d2f\u0d4d\u0d24\u0d3e\u0d7d": 3056,
  "\u2581sp": 3057,
  "\u0d15\u0d4d\u0d15\u0d41\u0d35\u0d47\u0d23\u0d4d\u0d1f\u0d3f": 3058,
  "\u0d35\u0d34\u0d3f": 3059,
  "\u2581forget": 3060,
  "\u2581break": 3061,
  "\u0d3e\u0d24": 3062,
  "\u2581\u0d07\u0d24\u0d3f\u0d28\u0d4d\u0d31\u0d46": 3063,
  "\u0d2d\u0d42\u0d2e\u0d3f": 3064,
  "\u0d2f\u0d3f\u0d7d\u0d28\u0d3f\u0d28\u0d4d\u0d28\u0d4d": 3065,
  "\u0d41\u0d28\u0d4d\u0d28\u0d41\u0d35\u0d4b": 3066,
  "\u2581area": 3067,
  "\u0d24\u0d32": 3068,
  "\u2581\u0d38\u0d24\u0d4d\u0d2f\u0d28\u0d3f\u0d37\u0d47\u0d27\u0d3f\u0d15\u0d7e": 3069,
  "\u0d28\u0d3f\u0d32": 3070,
  "\u0d16\u0d4d\u0d2f": 3071,
  "\u0d3e\u0d1f": 3072,
  "\u2581seed": 3073,
  "\u2581sound": 3074,
  "\u0d24\u0d46\u0d32\u0d4d\u0d32\u0d3e\u0d02": 3075,
  "\u0d2e\u0d41\u0d16": 3076,
  "\u0d2e\u0d7c": 3077,
  "\u2581health": 3078,
  "\u2581\u0d05\u0d28\u0d41\u0d17\u0d4d\u0d30\u0d39\u0d02": 3079,
  "\u0d05\u0d32\u0d4d\u0d32\u0d3e\u0d39\u0d41": 3080,
  "\u0d30\u0d4d": 3081,
  "\u2581\u0d15\u0d4b\u0d2a": 3082,
  "\u2581member": 3083,
  "\u0d3f\u0d1f\u0d4d\u0d1f\u0d41\u0d02": 3084,
  "\u0d3f\u0d32\u0d4b": 3085,
  "\u2581August": 3086,
  "\u2581\u0d2e\u0d41\u0d16\u0d02": 3087,
  "\u0d3f\u0d2f\u0d24\u0d4d": 3088,
  "\u2581caused": 3089,
  "\u2581refuge": 3090,
  "\u2581\u0d2c\u0d41": 3091,
  "\u2581\u0d38\u0d4d\u0d25\u0d32\u0d02": 3092,
  "\u2581\u0d2a\u0d4d\u0d30\u0d24\u0d3e\u0d2a\u0d3f\u0d2f\u0d41\u0d02": 3093,
  "AN": 3094,
  "\u2581meetings": 3095,
  "\u2581position": 3096,
  "\u2581suffer": 3097,
  "\u2581100": 3098,
  "\u2581Mary": 3099,
  "\u2581sheep": 3100,
  "\u0d2a\u0d24\u0d3f": 3101,
  "\u2581difficult": 3102,
  "\u2581miles": 3103,
  "\u2581blessed": 3104,
  "\u2581fell": 3105,
  "\u2581sword": 3106,
  "\u2581Gu": 3107,
  "\u2581published": 3108,
  "\u2581saith": 3109,
  "\u2581meeting": 3110,
  "\u2581\u0d36\u0d30\u0d3f\u0d15\u0d4d\u0d15\u0d41\u0d02": 3111,
  "\u2581met": 3112,
  "\u2581\u0d28\u0d3f\u0d30\u0d35\u0d27\u0d3f": 3113,
  "\u2581\u0d35\u0d3f\u0d35\u0d30\u0d19\u0d4d\u0d19\u0d7e": 3114,
  "\u25815,": 3115,
  "\u2581suffering": 3116,
  "\u2581teaching": 3117,
  "\u0d2e\u0d7b": 3118,
  "\u2581\u0d15\u0d34\u0d3f\u0d2f\u0d3f\u0d32\u0d4d\u0d32": 3119,
  "\u2581named": 3120,
  "\u2581\u0d2f\u0d4b\u0d39\u0d28\u0d4d\u0d28\u0d3e\u0d7b": 3121,
  "\u0d28\u0d42": 3122,
  "\u2581situation": 3123,
  "by": 3124,
  "\u25816,": 3125,
  "\u2581Ro": 3126,
  "\u2581\u0d15\u0d41\u0d31\u0d3f\u0d1a\u0d4d\u0d1a\u0d41": 3127,
  "\u2581\u0d2e\u0d24\u0d4d\u0d38\u0d30": 3128,
  "\u2581Behold": 3129,
  "\u0d24\u0d4d\u0d24\u0d3f\u0d32\u0d42\u0d1f\u0d46": 3130,
  "\u2581\u0d28\u0d4d\u0d2f\u0d42": 3131,
  "\u2581\u0d09\u0d2f\u0d30": 3132,
  "70": 3133,
  "\u0d28\u0d3e\u0d2e": 3134,
  "\u2581master": 3135,
  "\u2581\u0d15\u0d4d\u0d37": 3136,
  "io": 3137,
  "\u0d31\u0d4d\u0d31\u0d7c": 3138,
  "\u2581anger": 3139,
  "\u2581\u0d2a\u0d4b\u0d15\u0d41\u0d28\u0d4d\u0d28": 3140,
  "\u2581Ba": 3141,
  "\u2581grow": 3142,
  "\u2581l": 3143,
  "\u2581\u0d28\u0d3f\u0d24\u0d4d\u0d2f": 3144,
  "\u2581\u0d12\u0d28\u0d4d\u0d28\u0d3e\u0d02": 3145,
  "\u2581\u0d2e\u0d3e\u0d31\u0d4d\u0d31\u0d3f": 3146,
  "\u2581\u0d35\u0d32": 3147,
  "\u0d15\u0d4a\u0d33\u0d4d\u0d33": 3148,
  "\u2581spoke": 3149,
  "\u2581\u0d2a\u0d3e\u0d2a\u0d02": 3150,
  "\u0d41\u0d15\u0d4a\u0d23\u0d4d\u0d1f\u0d4d": 3151,
  "\u2581\u0d05\u0d19\u0d4d\u0d19": 3152,
  "\u2581\u0d28\u0d2e\u0d4d\u0d2e\u0d33\u0d46": 3153,
  "ach": 3154,
  "ory": 3155,
  "su": 3156,
  "\u0d23\u0d4d": 3157,
  "\u2581Would": 3158,
  "\u0d15\u0d4d\u0d15\u0d7d": 3159,
  "\u0d24\u0d3e\u0d2f": 3160,
  "\u0d27\u0d28": 3161,
  "\u258111.": 3162,
  "\u2581mo": 3163,
  "\u2581priests": 3164,
  "\u2581June": 3165,
  "\u2581rather": 3166,
  "\u2581pain": 3167,
  "\u0d38\u0d42": 3168,
  "\u2581attention": 3169,
  "\u0d15\u0d46": 3170,
  "\u0d15\u0d42\u0d1f": 3171,
  "\u258145": 3172,
  "\u2581problem": 3173,
  "\u2581\u0d15\u0d4a\u0d1f\u0d41\u0d24\u0d4d\u0d24\u0d41": 3174,
  "\u2581\u0d2e\u0d3e\u0d7c\u0d1a\u0d4d\u0d1a\u0d4d": 3175,
  "\u0d24\u0d4d\u0d24\u0d4b\u0d1f\u0d41": 3176,
  "\u2581Job": 3177,
  "\u2581large": 3178,
  "\u2581allow": 3179,
  "\u2581\u0d28\u0d2f\u0d3f\u0d15\u0d4d\u0d15": 3180,
  "\u2581less": 3181,
  "\u2581sleep": 3182,
  "\u2581Paradise": 3183,
  "\u2581\u0d24\u0d3f\u0d30\u0d1e\u0d4d\u0d1e\u0d46\u0d1f\u0d41\u0d15\u0d4d\u0d15": 3184,
  "\u0d24\u0d4d\u0d24\u0d3f\u0d28\u0d41\u0d33\u0d4d\u0d33": 3185,
  "\u2581\u0d1c\u0d40\u0d35\u0d28": 3186,
  "\u0d3f\u0d32\u0d3e\u0d23\u0d4d": 3187,
  "\u258112.": 3188,
  "\u2581Although": 3189,
  "\u2581Isaiah": 3190,
  "\u2581\u0d32\u0d42": 3191,
  "\u0d3f\u0d2a\u0d4d\u0d2a\u0d3f\u0d1a\u0d4d\u0d1a\u0d41": 3192,
  "\u0d41\u0d2a\u0d4b\u0d2f": 3193,
  "\u2581evening": 3194,
  "\u0d41\u0d23\u0d4d\u0d1f\u0d3e\u0d2f\u0d3f\u0d30\u0d41\u0d28\u0d4d\u0d28": 3195,
  "\u2581\u0d0f\u0d34\u0d41": 3196,
  "\u0d3f\u0d15\u0d4d\u0d15\u0d41\u0d15": 3197,
  "\u2581\u0d1c\u0d40\u0d35\u0d7b": 3198,
  "\u2581\u0d35\u0d47\u0d17\u0d02": 3199,
  "\u2581\u0d28\u0d47\u0d7c\u0d35\u0d34\u0d3f": 3200,
  "\u2581\u0d2e\u0d30\u0d23\u0d02": 3201,
  "\u2581\u0d26\u0d41\u0d37\u0d4d\u0d1f": 3202,
  "\u0d35\u0d47\u0d23\u0d4d\u0d1f\u0d3f": 3203,
  "\u2581\u0d28\u0d4b\u0d15\u0d4d\u0d15\u0d4d": 3204,
  "\u0d2f\u0d41\u0d2e\u0d3f\u0d32\u0d4d\u0d32": 3205,
  "\u0d23\u0d4b": 3206,
  "\u0d30\u0d3f\u0d7d": 3207,
  "lic": 3208,
  "\u2581\u0d1a\u0d47\u0d30": 3209,
  "God": 3210,
  "q": 3211,
  "\u2581changed": 3212,
  "\u0d2e\u0d3e\u0d2f\u0d3f\u0d30\u0d3f\u0d15\u0d4d\u0d15\u0d41\u0d02": 3213,
  "\u2581including": 3214,
  "ran": 3215,
  "\u2581\u0d2a\u0d31\u0d2f\u0d3e\u0d7b": 3216,
  "\u2581\u0d39\u0d47": 3217,
  "\u2581\u0d0f\u0d2a\u0d4d\u0d30\u0d3f\u0d7d": 3218,
  "\u2581places": 3219,
  "\u0d08": 3220,
  "\u2581accepted": 3221,
  "\u2581court": 3222,
  "\u2581spread": 3223,
  "\u2581National": 3224,
  "\u2581protect": 3225,
  "\u0d15\u0d47": 3226,
  "\u2581delivered": 3227,
  "\u0d15\u0d4a\u0d33\u0d4d\u0d33\u0d41\u0d15": 3228,
  "\u2581\u0d05\u0d28\u0d4d\u0d2f": 3229,
  "\u0d15\u0d4d\u0d15\u0d4a\u0d23\u0d4d\u0d1f\u0d4d": 3230,
  "\u2581held": 3231,
  "\u2581watch": 3232,
  "\u2581\u0d35\u0d3f\u0d35\u0d3f\u0d27": 3233,
  "\u2581\u0d38\u0d24\u0d4d\u0d2f\u0d35\u0d3f\u0d36\u0d4d\u0d35\u0d3e\u0d38\u0d3f\u0d15\u0d7e": 3234,
  "\u0d39\u0d3e\u0d30": 3235,
  "\u2581revelations": 3236,
  "\u2581\u0d15\u0d41\u0d31\u0d1e\u0d4d\u0d1e": 3237,
  "\u2581\u0d1a\u0d4b\u0d26\u0d3f\u0d1a\u0d4d\u0d1a": 3238,
  "\u2581\u0d09\u0d26\u0d4d\u0d26\u0d47\u0d36\u0d3f\u0d1a\u0d4d\u0d1a": 3239,
  "\u0d35\u0d3f\u0d1f\u0d46": 3240,
  "\u2581\u0d09\u0d23\u0d4d\u0d1f\u0d3e\u0d2f\u0d3f\u0d30\u0d3f\u0d15\u0d4d\u0d15": 3241,
  "eg": 3242,
  "\u2581January": 3243,
  "\u2581\u0d38\u0d42\u0d15\u0d4d\u0d37\u0d4d\u0d2e\u0d24": 3244,
  "ot": 3245,
  "\u258139": 3246,
  "\u2581\u0d38\u0d4d\u0d25\u0d3f\u0d24\u0d3f": 3247,
  "\u2581write": 3248,
  "\u2581\u0d1c\u0d2f": 3249,
  "\u2581\u0d2a\u0d4d\u0d30\u0d3e\u0d2a\u0d3f\u0d15\u0d4d\u0d15": 3250,
  "\u2581various": 3251,
  "\u2581\u0d17\u0d4d\u0d30\u0d3e\u0d2e": 3252,
  "\u2581\u0d05\u0d31\u0d3f\u0d2f\u0d41\u0d28\u0d4d\u0d28\u0d41": 3253,
  "\u2581\u0d2a\u0d41\u0d38\u0d4d\u0d24\u0d15": 3254,
  "\u2581\u0d35\u0d32\u0d4d\u0d32\u0d35\u0d28\u0d41\u0d02": 3255,
  "\u2581Proverbs": 3256,
  "\u2581\u0d07\u0d28\u0d4d\u0d28": 3257,
  "\u2581\u0d28\u0d1f\u0d28\u0d4d\u0d28\u0d41": 3258,
  "\u2581\u0d15\u0d4a\u0d23\u0d4d\u0d1f": 3259,
  "\u0d2a\u0d46": 3260,
  "\u2581\u0d30\u0d3e\u0d1c\u0d3e\u0d35\u0d41": 3261,
  "\u2581\u0d35\u0d3f\u0d37\u0d2e": 3262,
  "\u2581\u0d05\u0d24\u0d4d\u0d2d\u0d41\u0d24": 3263,
  "\u0d24\u0d4d\u0d30\u0d47": 3264,
  "\u2581\u0d06\u0d30": 3265,
  "\u2581\u0d1c\u0d32": 3266,
  "\u2581\u0d26\u0d41\u0d7c": 3267,
  "\u2581\u266a": 3268,
  "\u0d15\u0d4d\u0d30\u0d2e": 3269,
  "\u2581gain": 3270,
  "\u0d2d\u0d3e\u0d35": 3271,
  "\u2581slave": 3272,
  "\u2581\u0d2e\u0d39": 3273,
  "ner": 3274,
  "\u0d1e\u0d19\u0d4d\u0d19\u0d7e": 3275,
  "\u0d2c\u0d4b\u0d27": 3276,
  "\u2581Am": 3277,
  "\u2581guard": 3278,
  "\u2581mountain": 3279,
  "\u0d15\u0d4d\u0d15\u0d02": 3280,
  "\u2581prison": 3281,
  "\u0d19\u0d4d\u0d15\u0d3f": 3282,
  "\u2581midst": 3283,
  "\u2581states": 3284,
  "\u2581\u0d15\u0d23\u0d4d\u0d23\u0d41": 3285,
  "\u2581\u0d2a\u0d30\u0d4d\u0d2f": 3286,
  "\u2581hurt": 3287,
  "\u2581\u0d2e\u0d3e\u0d24\u0d4d\u0d30\u0d2e\u0d3e\u0d15\u0d41\u0d28\u0d4d\u0d28\u0d41": 3288,
  "\u0d24\u0d28\u0d4d\u0d28": 3289,
  "\u25814,": 3290,
  "\u2581\u0d2e\u0d42\u0d38\u0d3e": 3291,
  "\u2581March": 3292,
  "\u2581draw": 3293,
  "\u0d24\u0d4d\u0d24\u0d47\u0d15\u0d4d\u0d15\u0d41": 3294,
  "\u2581\u0d35\u0d2f\u0d38\u0d4d\u0d38": 3295,
  "\u0d28\u0d3e\u0d02": 3296,
  "\u2581di": 3297,
  "\u2581\u0d35\u0d3f\u0d1c\u0d2f": 3298,
  "\u2581comfort": 3299,
  "\u0d2e\u0d3e\u0d7b": 3300,
  "\u2581\u0d2a\u0d23": 3301,
  "\u0d3f\u0d2f\u0d41\u0d1f\u0d46": 3302,
  "\u2581\u0d15\u0d7e": 3303,
  "\u2581\u0d35\u0d40\u0d34": 3304,
  "ors": 3305,
  "\u0d15\u0d4a\u0d23\u0d4d\u0d1f\u0d41\u0d02": 3306,
  "\u2581\u0d1c\u0d42\u0d32\u0d48": 3307,
  "\u2581bar": 3308,
  "\u2581\u0d30\u0d15\u0d4d\u0d37\u0d3f\u0d24\u0d3e\u0d35\u0d47": 3309,
  "\u25819.": 3310,
  "\u2581gathered": 3311,
  "\u0d2e\u0d46\u0d28\u0d4d\u0d28": 3312,
  "\u2581\u0d38\u0d39\u0d3e\u0d2f": 3313,
  "\u25811999": 3314,
  "\u2581daughters": 3315,
  "\u2581ex": 3316,
  "\u0d2a\u0d15": 3317,
  ",000": 3318,
  "\u2581reading": 3319,
  "ium": 3320,
  "\u2581h": 3321,
  "\u2581similar": 3322,
  "\u2581\u0d05\u0d24\u0d3f\u0d32": 3323,
  "\u2581\u0d05\u0d2d\u0d3f\u0d28": 3324,
  "\u0d3f\u0d2f\u0d41\u0d02": 3325,
  "\u2581Law": 3326,
  "\u2581matters": 3327,
  "\u2581\u0d09\u0d2a\u0d2e": 3328,
  "\u2581\u0d15\u0d4b\u0d7a": 3329,
  "\u0d2e\u0d4d\u0d2a\u0d4d": 3330,
  "\u0d3e\u0d33": 3331,
  "\u2581\u0d2b\u0d32\u0d2e\u0d3e\u0d2f\u0d3f": 3332,
  "\u0d2a\u0d4d\u0d2a\u0d4a": 3333,
  "\u2581birth": 3334,
  "\u0d32\u0d3f\u0d2f": 3335,
  "\u2581\u0d2e\u0d1f\u0d19\u0d4d\u0d19": 3336,
  "\u0d7c\u0d39": 3337,
  "\u2581\u0d15\u0d33\u0d4d\u0d33": 3338,
  "\u2581\u0d2e\u0d41\u0d34\u0d41": 3339,
  "ex": 3340,
  "\u2581\u0d0f\u0d24\u0d4d": 3341,
  "\u2581\u0d2a\u0d30\u0d38\u0d4d\u0d2a\u0d30\u0d02": 3342,
  "\u0d2e\u0d41\u0d24\u0d7d": 3343,
  "\u2581\u0d24\u0d4d\u0d24\u0d41": 3344,
  "\u258110:": 3345,
  "\u2581room": 3346,
  "\u0d38\u0d28": 3347,
  "\u0d1f\u0d46": 3348,
  "\u2581battle": 3349,
  "\u2581lay": 3350,
  "\u2581\u0d15\u0d30\u0d41\u0d24": 3351,
  "\u0d30\u0d41\u0d24": 3352,
  "\u2581\u0d35\u0d3f\u0d35\u0d3e\u0d39": 3353,
  "han": 3354,
  "ow": 3355,
  "\u0d28\u0d4d\u0d2e\u0d3e\u0d30\u0d41\u0d02": 3356,
  "\u2581\u0d2a\u0d41\u0d31\u0d2a\u0d4d\u0d2a\u0d46\u0d1f\u0d4d\u0d1f\u0d41": 3357,
  "\u0d15\u0d33\u0d2f": 3358,
  "\u0d15\u0d33\u0d3e\u0d23\u0d4d": 3359,
  "\u0d15\u0d46\u0d1f\u0d4d\u0d1f": 3360,
  "\u0d3e\u0d15\u0d4d\u0d15\u0d3f\u0d2f": 3361,
  "\u2581\u0d28\u0d3e\u0d1f": 3362,
  "\u258114.": 3363,
  "\u2581big": 3364,
  "\u2581\u0d2a\u0d4d\u0d30\u0d3e\u0d7c\u0d25\u0d3f\u0d15\u0d4d\u0d15": 3365,
  "\u0d2c\u0d4d\u0d2c": 3366,
  "\u2581September": 3367,
  "\u2581\u0d2a\u0d4d\u0d30\u0d35\u0d43\u0d24\u0d4d\u0d24\u0d3f": 3368,
  "\u25819,": 3369,
  "\u2581Creator": 3370,
  "\u2581El": 3371,
  "\u0d7c\u0d1f\u0d4d\u0d1f\u0d4d": 3372,
  "\u2581Cor": 3373,
  "\u2581\u0d15\u0d3e\u0d30": 3374,
  "\u2581\u0d38\u0d02\u0d17\u0d24\u0d3f": 3375,
  "\u2581\u0d05\u0d28\u0d4d\u0d28\u0d41": 3376,
  "\u2581\u0d1a\u0d30\u0d3f\u0d24\u0d4d\u0d30": 3377,
  "ities": 3378,
  "\u2581outside": 3379,
  "\u2581taste": 3380,
  "\u2581Israelites": 3381,
  "\u2581cover": 3382,
  "\u2581\u0d2a\u0d3f\u0d1f\u0d3f": 3383,
  "\u2581\u0d38\u0d02\u0d38\u0d4d\u0d25\u0d3e\u0d28": 3384,
  "\u0d2d\u0d40": 3385,
  "\u2581Tell": 3386,
  "\u2581\u0d15\u0d7c\u0d24\u0d4d\u0d24\u0d3e\u0d35": 3387,
  "\u2581honor": 3388,
  "\u2581\u0d1f\u0d4b": 3389,
  "\u2581\u0d38\u0d42": 3390,
  "ide": 3391,
  "\u2581\u0d38\u0d02\u0d18": 3392,
  "\u0d28\u0d4d\u0d2f\u0d3e": 3393,
  "\u2581Consider": 3394,
  "\u2581\u0d2b\u0d46\u0d2c\u0d4d\u0d30\u0d41\u0d35\u0d30\u0d3f": 3395,
  "\u2581\u0d05\u0d27\u0d3f\u0d15": 3396,
  "\u0d15\u0d33\u0d3f\u0d32\u0d41\u0d02": 3397,
  "\u2581\u0d0f\u0d15\u0d26\u0d47\u0d36\u0d02": 3398,
  "ven": 3399,
  "\u2581rivers": 3400,
  "\u2581\u0d24\u0d3f\u0d30\u0d3f\u0d1a\u0d4d\u0d1a\u0d31\u0d3f\u0d2f": 3401,
  "\u2581rule": 3402,
  "\u2581Quran": 3403,
  "\u2581\u0d15\u0d4b\u0d1f\u0d4d\u0d1f": 3404,
  "\u2581justice": 3405,
  "\u2581saved": 3406,
  "\u2581\u0d2a\u0d26\u0d4d\u0d27\u0d24\u0d3f": 3407,
  "nes": 3408,
  "\u2581\u0d15\u0d42\u0d1f\u0d3f\u0d2f": 3409,
  "\u2581especially": 3410,
  "\u0d32\u0d41\u0d15\u0d7e": 3411,
  "\u2581\u0d2a\u0d4a\u0d24\u0d41": 3412,
  "\u2581\u0d36\u0d30\u0d3f\u0d2f\u0d3e\u0d2f": 3413,
  "\u2581Wise": 3414,
  "\u2581\u0d05\u0d35\u0d38\u0d3e\u0d28\u0d02": 3415,
  "\u0d4a\u0d30": 3416,
  "\u2581loved": 3417,
  "\u2581\u0d28\u0d3f\u0d37\u0d47\u0d27\u0d3f\u0d1a\u0d4d\u0d1a\u0d41": 3418,
  "\u0d3f\u0d1f\u0d4d\u0d1f\u0d41\u0d23\u0d4d\u0d1f\u0d4b": 3419,
  "\u0d40\u0d28": 3420,
  "\u2581July": 3421,
  "\u2581darkness": 3422,
  "\u2581\u0d17\u0d4d\u0d30\u0d28\u0d4d\u0d25": 3423,
  "\u2581\u0d28\u0d26\u0d3f": 3424,
  "\u2581\u0d28\u0d32\u0d4d\u0d32\u0d24\u0d4d": 3425,
  "\u2581\u0d2a\u0d4b\u0d35": 3426,
  "\u2581\u0d30\u0d15\u0d4d\u0d37\u0d3f\u0d24\u0d3e\u0d35\u0d3f\u0d19\u0d4d\u0d15\u0d7d": 3427,
  "\u2581\u0d38\u0d3f\u0d28\u0d3f\u0d2e": 3428,
  "\u0d15\u0d4d\u0d15\u0d41\u0d31\u0d3f\u0d1a\u0d4d\u0d1a\u0d41": 3429,
  "\u0d2e\u0d2f": 3430,
  "\u2581\u0d2d\u0d15\u0d4d\u0d37\u0d23\u0d02": 3431,
  "\u2581local": 3432,
  "\u2581\u0d05\u0d2a\u0d4d\u0d2a": 3433,
  "\u2581\u0d12\u0d30\u0d3e\u0d33": 3434,
  "ites": 3435,
  "tu": 3436,
  "\u2581Greek": 3437,
  "\u2581\u0d0e\u0d38\u0d4d": 3438,
  "\u2581\u0d2a\u0d41\u0d31\u0d24\u0d4d\u0d24\u0d4d": 3439,
  "\u2581\u0d2e\u0d41\u0d31\u0d3f": 3440,
  "\u2581prayers": 3441,
  "\u2581\u0d05\u0d35\u0d27\u0d3f": 3442,
  "\u2581\u0d0e\u0d28\u0d4d\u0d28\u0d3f\u0d30\u0d41\u0d28\u0d4d\u0d28\u0d3e\u0d32\u0d41\u0d02": 3443,
  "\u2581\u0d28\u0d47\u0d30\u0d24\u0d4d\u0d24\u0d46": 3444,
  "\u0d15\u0d4d\u0d30": 3445,
  "\u0d36\u0d4d\u0d36": 3446,
  "\u2581town": 3447,
  "\u2581\u0d05\u0d2f\u0d1a\u0d4d\u0d1a": 3448,
  "\u2581\u0d35\u0d30\u0d3f\u0d15": 3449,
  "\u2581\u0d38\u0d24\u0d4d\u0d2f\u0d28\u0d3f\u0d37\u0d47\u0d27\u0d3f\u0d15\u0d7e\u0d15\u0d4d\u0d15": 3450,
  "\u2581mentioned": 3451,
  "\u2581speech": 3452,
  "\u2581tried": 3453,
  "\u2581\u0d1a\u0d3f\u0d28\u0d4d\u0d24\u0d3f\u0d1a\u0d4d\u0d1a\u0d41": 3454,
  "\u2581alive": 3455,
  "\u2581feelings": 3456,
  "\u2581line": 3457,
  "\u2581working": 3458,
  "\u2581Di": 3459,
  "\u2581\u0d2a\u0d3e\u0d24": 3460,
  "\u0d2e\u0d24": 3461,
  "\u0d2f\u0d7d": 3462,
  "\u2581\u0d1a\u0d4b\u0d26\u0d3f\u0d15\u0d4d\u0d15\u0d41\u0d28\u0d4d\u0d28\u0d41": 3463,
  "\u2581km": 3464,
  "\u2581pure": 3465,
  "\u0d41\u0d15\u0d4a\u0d23\u0d4d\u0d1f\u0d3f\u0d30\u0d41\u0d28\u0d4d\u0d28": 3466,
  "\u2581baptized": 3467,
  "\u2581\u0d05\u0d2f\u0d15\u0d4d\u0d15": 3468,
  "\u0d38\u0d24\u0d4d\u0d2f": 3469,
  "\u258111:": 3470,
  "\u2581\u0d15\u0d4d\u0d30\u0d3f": 3471,
  "\u2581patient": 3472,
  "\u0d15\u0d4d\u0d15\u0d46\u0d24\u0d3f\u0d30\u0d46": 3473,
  "ward": 3474,
  "\u0d15\u0d40": 3475,
  "\u0d28\u0d3f\u0d30": 3476,
  "ible": 3477,
  "\u2581minister": 3478,
  "\u2581\u0d15\u0d3e\u0d7d": 3479,
  "\u2581\u0d30\u0d23\u0d4d\u0d1f\u0d3e\u0d02": 3480,
  "\u0d24\u0d4d\u0d24\u0d4b\u0d1f\u0d4d": 3481,
  "\u2581\u0d06\u0d35": 3482,
  "\u2581\u0d17\u0d41": 3483,
  "\u2581\u0d05\u0d31\u0d3f\u0d2f\u0d3f\u0d32\u0d4d\u0d32": 3484,
  "\u2581\u0d38\u0d3e\u0d7c": 3485,
  "\u0d30\u0d3e\u0d2e": 3486,
  "\u0d7c\u0d15\u0d4d\u0d15\u0d41\u0d02": 3487,
  "\u2581Right": 3488,
  "\u2581\u0d33\u0d3f\u0d7d": 3489,
  "99": 3490,
  "ze": 3491,
  "\u2581considered": 3492,
  "\u2581followers": 3493,
  "\u0d32\u0d3f\u0d28\u0d4d\u0d31\u0d46": 3494,
  "\u2581office": 3495,
  "\u0d41\u0d28\u0d4d\u0d28\u0d41\u0d23\u0d4d\u0d1f\u0d4b": 3496,
  "\u0d47\u0d7d": 3497,
  "\u2581\u0d06\u0d26\u0d4d\u0d2f\u0d2e\u0d3e\u0d2f\u0d3f": 3498,
  "\u2581verses": 3499,
  "\u2581\u0d05\u0d1f\u0d41\u0d24\u0d4d\u0d24\u0d47\u0d15\u0d4d\u0d15\u0d4d": 3500,
  "\u0d30\u0d15\u0d4d\u0d37": 3501,
  "\u0d41\u0d2e\u0d3e\u0d15\u0d41\u0d28\u0d4d\u0d28\u0d41": 3502,
  "\u2581sit": 3503,
  "0,000": 3504,
  "\u2581\u0d0e\u0d34\u0d41\u0d24": 3505,
  "\u0d69": 3506,
  "\u2581Messengers": 3507,
  "\u2581\u0d13\u0d7c\u0d15\u0d4d\u0d15": 3508,
  "iv": 3509,
  "\u2581SAW": 3510,
  "\u2581fast": 3511,
  "\u2581unjust": 3512,
  "\u2581spoken": 3513,
  "\u2581\u0d28\u0d7d\u0d15\u0d41\u0d15": 3514,
  "\u2581Ni": 3515,
  "\u2581\u0d15\u0d4d\u0d15\u0d3e\u0d02": 3516,
  "\u0d2f\u0d3e\u0d23": 3517,
  "\u2581\u0d05\u0d1f\u0d41\u0d24\u0d4d\u0d24\u0d41": 3518,
  "\u2581chastisement": 3519,
  "\u2581\u0d15\u0d4d\u0d30\u0d2e": 3520,
  "\u2581\u0d28\u0d3f\u0d19\u0d4d\u0d19\u0d33\u0d41\u0d02": 3521,
  "so": 3522,
  "\u2581Ri": 3523,
  "\u2581\u0d07\u0d31\u0d19\u0d4d\u0d19\u0d3f": 3524,
  "\u2581\u0d28\u0d3f\u0d31\u0d1e\u0d4d\u0d1e": 3525,
  "\u2581worked": 3526,
  "\u2581\u0d15\u0d40\u0d34\u0d4d": 3527,
  "\u0d28\u0d4b\u0d15\u0d4d\u0d15": 3528,
  "\u0d2f\u0d4b\u0d1f\u0d4d": 3529,
  "\u2581kings": 3530,
  "\u2581\u0d26\u0d3e\u0d28": 3531,
  "\u2581\u0d2a\u0d3f\u0d1f\u0d3f\u0d1a\u0d4d\u0d1a": 3532,
  "\u2581\u0d38\u0d2e\u0d41\u0d26\u0d4d\u0d30": 3533,
  "\u2581Children": 3534,
  "\u2581hour": 3535,
  "\u2581cry": 3536,
  "\u2581\u0d05\u0d31\u0d3f\u0d2f\u0d3f\u0d15\u0d4d\u0d15": 3537,
  "\u2581\u0d24\u0d41\u0d31\u0d28\u0d4d\u0d28\u0d41": 3538,
  "\u2581Truth": 3539,
  "\u2581value": 3540,
  "\u2581\u0d24\u0d4d\u0d2f\u0d3e\u0d28\u0d3f\u0d15\u0d7e": 3541,
  "\u0d41\u0d23\u0d4d\u0d1f\u0d3e\u0d15\u0d4d\u0d15\u0d3f\u0d2f": 3542,
  "\u0d46\u0d1f\u0d41\u0d24\u0d4d\u0d24\u0d41": 3543,
  "\u0d24\u0d4d\u0d24\u0d3f\u0d28\u0d4d\u0d31\u0d46\u0d2f\u0d41\u0d02": 3544,
  "\u0d32\u0d41": 3545,
  "\u2581Hu": 3546,
  "\u2581\u0d24\u0d4b\u0d1f\u0d4d\u0d1f": 3547,
  "\u0d2c\u0d47": 3548,
  "\u0d15\u0d3e\u0d30\u0d3f": 3549,
  "\u2581\u0d09\u0d26\u0d3e\u0d39\u0d30\u0d23\u0d24\u0d4d\u0d24\u0d3f\u0d28\u0d4d": 3550,
  "\u2581\u0d28\u0d3f\u0d28\u0d4d\u0d28\u0d4b\u0d1f\u0d41": 3551,
  "\u2581company": 3552,
  "\u2581ra": 3553,
  "\u2581\u0d1c\u0d40\u0d35\u0d3f\u0d15\u0d4d\u0d15": 3554,
  "\u2581likely": 3555,
  "\u2581serving": 3556,
  "\u2581\u0d2a\u0d4d\u0d30\u0d15\u0d3e\u0d36": 3557,
  "\u2581\u0d05\u0d7c": 3558,
  "\u2581\u0d30\u0d46": 3559,
  "\u2581\u0d39\u0d43\u0d26\u0d2f\u0d02": 3560,
  "\u0d15\u0d4d\u0d15\u0d4a\u0d23\u0d4d\u0d1f\u0d41": 3561,
  "\u2581either": 3562,
  "\u2581\u0d32\u0d47": 3563,
  "\u2581showed": 3564,
  "\u2581\u0d1a\u0d46\u0d28\u0d4d\u0d28": 3565,
  "\u2581\u0d2a\u0d34\u0d2f": 3566,
  "mer": 3567,
  "\u2581December": 3568,
  "\u2581\u0d15\u0d47\u0d28\u0d4d\u0d26\u0d4d\u0d30": 3569,
  "\u2581\u0d1c\u0d28\u0d24\u0d4d\u0d24\u0d46": 3570,
  "\u2581\u0d24\u0d15": 3571,
  "\u0d15\u0d32": 3572,
  "\u2581\u0d2d\u0d42\u0d2e\u0d3f\u0d2f\u0d46": 3573,
  "\u2581\u0d35\u0d3f\u0d26\u0d4d\u0d2f": 3574,
  "\u2581messengers": 3575,
  "\u2581\u0d36\u0d3f\u0d15\u0d4d\u0d37\u0d3f\u0d15\u0d4d\u0d15": 3576,
  "\u0d3f\u0d2f\u0d46": 3577,
  "\u2581\u0d05\u0d2e\u0d47\u0d30\u0d3f\u0d15\u0d4d\u0d15": 3578,
  "qu": 3579,
  "\u2581angel": 3580,
  "\u2581sick": 3581,
  "\u2581\u0d28\u0d3e\u0d2e\u0d02": 3582,
  "\u0d3e\u0d2f\u0d3f\u0d30\u0d3f\u0d15\u0d4d\u0d15": 3583,
  "\u2581\u0d2a\u0d4d\u0d30\u0d3f\u0d2f": 3584,
  "\u2581\u0d15\u0d41\u0d31\u0d46": 3585,
  "\u2581\u0d1a\u0d47": 3586,
  "\u2581\u0d2e\u0d15\u0d4d\u0d15\u0d7e": 3587,
  "\u0d2f\u0d3f\u0d32\u0d42\u0d1f\u0d46": 3588,
  "\u2581While": 3589,
  "\u2581etc": 3590,
  "\u2581short": 3591,
  "\u2581\u0d06\u0d17\u0d4d\u0d30\u0d39\u0d3f\u0d15\u0d4d\u0d15\u0d41\u0d28\u0d4d\u0d28": 3592,
  "\u0d40\u0d38\u0d4d": 3593,
  "\u2581\u0d05\u0d28\u0d41\u0d35\u0d26\u0d3f\u0d15\u0d4d\u0d15": 3594,
  "\u2581visit": 3595,
  "\u2581\u0d05\u0d32\u0d4d\u0d32\u0d3e\u0d39\u0d41\u0d35\u0d3f\u0d19\u0d4d\u0d15\u0d7d": 3596,
  "\u258170": 3597,
  "\u25817:": 3598,
  "\u2581straight": 3599,
  "\u2581\u0d06\u0d23": 3600,
  "\u2581\u0d2e\u0d47\u0d32": 3601,
  "\u0d15\u0d4d\u0d15\u0d3e\u0d30\u0d28": 3602,
  "\u0d15\u0d4d\u0d24": 3603,
  "\u2581dear": 3604,
  "\u2581perhaps": 3605,
  "\u2581sisters": 3606,
  "\u0d3f\u0d30\u0d3f\u0d15\u0d4d\u0d15\u0d41\u0d15\u0d2f\u0d3e\u0d23\u0d4d": 3607,
  "\u2581everlasting": 3608,
  "\u2581till": 3609,
  "\u2581\u0d2d\u0d15\u0d4d\u0d24\u0d3f": 3610,
  "\u2581\u0d39\u0d48": 3611,
  "\u2581increase": 3612,
  "\u2581reject": 3613,
  "\u2581\u0d2a\u0d4d\u0d30\u0d2f\u0d4b\u0d1c\u0d28": 3614,
  "\u0d23\u0d3e": 3615,
  "\u2581silver": 3616,
  "\u2581\u0d26\u0d43\u0d37\u0d4d\u0d1f\u0d3e\u0d28\u0d4d\u0d24\u0d19\u0d4d\u0d19\u0d7e": 3617,
  "\u2581\u0d2f\u0d39\u0d42\u0d26": 3618,
  "\u2581\u0d38\u0d28\u0d4d\u0d26\u0d47\u0d36\u0d02": 3619,
  "\u2581takes": 3620,
  "\u2581\u0d15\u0d4d\u0d30": 3621,
  "\u2581\u0d2a\u0d4d\u0d30\u0d38\u0d3f": 3622,
  "\u258141": 3623,
  "\u0d47\u0d31\u0d4d\u0d31\u0d4d": 3624,
  "\u2581\u0d28\u0d1f\u0d15\u0d4d\u0d15\u0d41\u0d28\u0d4d\u0d28": 3625,
  "\u2581Car": 3626,
  "\u2581\u0d0e\u0d19\u0d4d\u0d19\u0d28\u0d46\u0d2f\u0d3e\u0d23\u0d4d": 3627,
  "\u2581\u0d15\u0d41\u0d1f\u0d3f": 3628,
  "\u2581\u0d36\u0d4d\u0d30\u0d40": 3629,
  "\u2581\u0d07\u0d26\u0d4d\u0d26\u0d47\u0d39\u0d02": 3630,
  "\u2581\u0d0e\u0d2a\u0d4d\u0d2a\u0d4b\u0d34\u0d41\u0d02": 3631,
  "\u0d3e\u0d32\u0d2f": 3632,
  "\u2581served": 3633,
  "\u258117.": 3634,
  "\u2581Today": 3635,
  "\u2581deep": 3636,
  "\u0d2e\u0d4a": 3637,
  "\u258142": 3638,
  "\u2581business": 3639,
  "\u2581\u0d24\u0d41\u0d1f\u0d30": 3640,
  "\u0d2d\u0d2f": 3641,
  "\u0d2e\u0d3e\u0d23\u0d4b": 3642,
  "\u2581beginning": 3643,
  "\u2581measure": 3644,
  "\u2581\u0d24\u0d15\u0d02": 3645,
  "\u0d2b\u0d32": 3646,
  "\u0d32\u0d3f\u0d7d": 3647,
  "\u0d41\u0d28\u0d4d\u0d28\u0d41\u0d23\u0d4d\u0d1f\u0d4d": 3648,
  "\u2581faces": 3649,
  "\u2581pleasure": 3650,
  "\u2581\u0d2a\u0d30\u0d32\u0d4b\u0d15": 3651,
  "\u0d41\u0d23\u0d4d\u0d1f\u0d3e\u0d2f\u0d3f\u0d30\u0d41\u0d28\u0d4d\u0d28\u0d41": 3652,
  "\u2581\u0d15\u0d42\u0d1f\u0d4d\u0d1f\u0d3f": 3653,
  "\u2581\u0d24\u0d41\u0d1f\u0d7c\u0d28\u0d4d\u0d28\u0d41": 3654,
  "\u2581\u0d36\u0d4d\u0d30\u0d26\u0d4d\u0d27\u0d3f\u0d15\u0d4d\u0d15": 3655,
  "\u0d3e\u0d23\u0d24\u0d4d": 3656,
  "\u2581seem": 3657,
  "\u0d15\u0d3e\u0d30\u0d4d\u0d2f": 3658,
  "\u2581\u0d38\u0d02\u0d17\u0d40\u0d24": 3659,
  "\u2581powerful": 3660,
  "\u2581\u0d28\u0d47\u0d7c\u0d35\u0d34\u0d3f\u0d2f\u0d3f\u0d32\u0d3e\u0d15\u0d4d\u0d15": 3661,
  "\u0d15\u0d7e\u0d15\u0d4d\u0d15\u0d41\u0d02": 3662,
  "\u2581lo": 3663,
  "\u0d31\u0d47": 3664,
  "\u2581front": 3665,
  "\u2581involved": 3666,
  "\u2581\u0d14": 3667,
  "\u2581\u0d2a\u0d3e\u0d7c\u0d1f\u0d4d\u0d1f\u0d3f": 3668,
  "\u2581\u0d2a\u0d42\u0d7c\u0d23": 3669,
  "\u2581\u0d28\u0d2e\u0d38\u0d4d\u0d15\u0d3e\u0d30\u0d02": 3670,
  "\u2581carry": 3671,
  "\u2581music": 3672,
  "\u2581\u0d2a\u0d4b\u0d15\u0d41\u0d28\u0d4d\u0d28\u0d41": 3673,
  "\u2581\u0d35\u0d4d\u0d2f": 3674,
  "\u0d12": 3675,
  "\u0d19\u0d4d\u0d19\u0d28\u0d46": 3676,
  "\u0d2a\u0d4d\u0d2a\u0d3e\u0d1f": 3677,
  "\u2581\u0d05\u0d35\u0d24\u0d30\u0d3f\u0d2a\u0d4d\u0d2a\u0d3f\u0d1a\u0d4d\u0d1a": 3678,
  "\u2581\u0d28\u0d2e\u0d4d\u0d2e\u0d33": 3679,
  "ally": 3680,
  "ized": 3681,
  "\u2581heavenly": 3682,
  "\u0d35\u0d3f\u0d32": 3683,
  "\u0d2a\u0d4d\u0d30\u0d24\u0d3f": 3684,
  "\u2581test": 3685,
  "\u2581\u0d2e\u0d41\u0d1f\u0d4d\u0d1f": 3686,
  "\u0d2e\u0d28\u0d4d\u0d24\u0d4d\u0d30": 3687,
  "\u0d3e\u0d15\u0d4d\u0d15\u0d41\u0d15\u0d2f\u0d41\u0d02": 3688,
  "\u0d2f\u0d46\u0d28\u0d4d\u0d28\u0d4d": 3689,
  "ship": 3690,
  "\u2581animals": 3691,
  "\u2581\u0d2c\u0d3e\u0d27\u0d3f\u0d15\u0d4d\u0d15": 3692,
  "\u0d7c\u0d15\u0d4d\u0d15\u0d4d": 3693,
  "\u2581\u0d15\u0d3e\u0d23\u0d41\u0d28\u0d4d\u0d28": 3694,
  "\u2581\u0d28\u0d3e\u0d2f": 3695,
  "\u2581white": 3696,
  "\u2581wine": 3697,
  "\u2581\u0d15\u0d41\u0d24\u0d3f\u0d30": 3698,
  "\u2581\u0d33\u0d3f": 3699,
  "\u2581longer": 3700,
  "\u2581\u0d33\u0d41\u0d02": 3701,
  "\u2581\u0d2e\u0d41\u0d16\u0d4d\u0d2f": 3702,
  "\u2581firm": 3703,
  "\u2581\u0d35\u0d3f\u0d33\u0d3f\u0d1a\u0d4d\u0d1a": 3704,
  "\u258144": 3705,
  "\u2581Timothy": 3706,
  "\u2581stood": 3707,
  "\u2581\u0d23\u0d4d\u0d1f\u0d3e": 3708,
  "\u2581\u0d05\u0d30\u0d41\u0d33\u0d3f\u0d1a\u0d4d\u0d1a\u0d46\u0d2f\u0d4d\u0d2f": 3709,
  "\u0d2d\u0d3e\u0d17\u0d24\u0d4d\u0d24": 3710,
  "\u2581wind": 3711,
  "\u2581\u0d28\u0d3e\u0d33\u0d3f\u0d7d": 3712,
  "\u0d1a\u0d3e\u0d30": 3713,
  "\u0d3f\u0d15\u0d4d\u0d15\u0d41\u0d02": 3714,
  "\u0d47\u0d15\u0d4d\u0d15": 3715,
  "\u2581\u0d15\u0d3e\u0d24\u0d4d\u0d24\u0d3f\u0d30\u0d3f\u0d15\u0d4d\u0d15": 3716,
  "\u0d1e\u0d19\u0d4d\u0d19\u0d33\u0d41\u0d1f\u0d46": 3717,
  "ung": 3718,
  "\u2581\u0d2e\u0d4b\u0d36\u0d46": 3719,
  "\u0d35\u0d30\u0d4b\u0d1f\u0d4d": 3720,
  "\u2581trees": 3721,
  "\u2581\u0d2a\u0d3e\u0d32": 3722,
  "\u2581bread": 3723,
  "\u2581\u0d2c\u0d4b\u0d27": 3724,
  "\u2581\u0d07\u0d35\u0d3f\u0d1f": 3725,
  "\u2581\u0d24\u0d40\u0d30": 3726,
  "\u0d7b\u0d31": 3727,
  "\u2581\u0d05\u0d2f\u0d3e\u0d33\u0d41\u0d1f\u0d46": 3728,
  "\u2581\u0d12\u0d33\u0d3f": 3729,
  "\u2581\u0d2a\u0d47\u0d30\u0d41\u0d02": 3730,
  "ten": 3731,
  "\u2581\u0d0e\u0d28\u0d4d\u0d28\u0d24\u0d41": 3732,
  "\u2581\u0d2e\u0d41\u0d24\u0d32": 3733,
  "ud": 3734,
  "\u0d3f\u0d37\u0d4d": 3735,
  "\u2581\u0d05\u0d28\u0d4d\u0d2f\u0d4b\u0d28\u0d4d\u0d2f\u0d02": 3736,
  "\u2581\u0d28\u0d4b\u0d15\u0d4d\u0d15\u0d41\u0d15": 3737,
  "\u2581\u0d2e\u0d7c": 3738,
  "\u0d41\u0d2e\u0d46\u0d28\u0d4d\u0d28": 3739,
  "\u2581file": 3740,
  "\u2581lest": 3741,
  "\u2581\u0d1a\u0d4b\u0d26\u0d3f\u0d15\u0d4d\u0d15\u0d41\u0d15": 3742,
  "\u0d3f\u0d2f\u0d3f\u0d7d": 3743,
  "\u2581\u0d2b\u0d3f": 3744,
  "\u0d2e\u0d3e\u0d23\u0d3f\u0d24\u0d4d": 3745,
  "\u2581Mon": 3746,
  "\u2581picture": 3747,
  "\u2581\u0d1a\u0d4b\u0d26\u0d4d\u0d2f\u0d02": 3748,
  "\u2581\u0d2f\u0d4d": 3749,
  "\u2581\u0d07\u0d24\u0d4d\u0d30": 3750,
  "\u2581\u0d35\u0d46\u0d33\u0d4d\u0d33\u0d3f": 3751,
  "\u2581thanks": 3752,
  "\u2581\u0d28\u0d15\u0d4d\u0d37\u0d24\u0d4d\u0d30": 3753,
  "\u2581\u0d2c\u0d41\u0d26\u0d4d\u0d27\u0d3f\u0d2e\u0d41\u0d1f\u0d4d\u0d1f": 3754,
  "\u2581presence": 3755,
  "\u2581report": 3756,
  "\u2581\u0d05\u0d24\u0d41\u0d15\u0d4a\u0d23\u0d4d\u0d1f\u0d41": 3757,
  "\u0d35\u0d28\u0d4d": 3758,
  "\u0d35\u0d48": 3759,
  "\u2581serious": 3760,
  "mar": 3761,
  "\u0d38\u0d57": 3762,
  "\u0d3d": 3763,
  "\u2581\u0d05\u0d38\u0d4d": 3764,
  "\u2581\u0d1c\u0d28\u0d38\u0d02\u0d16\u0d4d\u0d2f": 3765,
  "\u2581using": 3766,
  "\u2581\u0d15\u0d23\u0d15\u0d4d\u0d15": 3767,
  "\u2581based": 3768,
  "\u0d15\u0d4d\u0d15\u0d42\u0d1f\u0d4d\u0d1f": 3769,
  "\u2581happen": 3770,
  "\u0d19\u0d4d\u0d19\u0d33\u0d3e\u0d23\u0d4d": 3771,
  "\u2581brings": 3772,
  "\u2581getting": 3773,
  "\u0d39\u0d30\u0d3f": 3774,
  "\u0d4b\u0d33\u0d02": 3775,
  "\u2581inspired": 3776,
  "\u2581\u0d2a\u0d31\u0d1e\u0d4d\u0d1e\u0d24\u0d41": 3777,
  "\u2581secret": 3778,
  "\u0d24\u0d30\u0d02": 3779,
  "\u2581\u0d2e\u0d15\u0d4d\u0d15\u0d33\u0d46": 3780,
  "her": 3781,
  "\u2581v": 3782,
  "\u2581\u0d38\u0d47\u0d35\u0d28": 3783,
  "\u2581glad": 3784,
  "\u2581material": 3785,
  "\u2581\u0d35\u0d47\u0d26\u0d28": 3786,
  "\u0d35\u0d3f\u0d7b": 3787,
  "\u0d47\u0d23\u0d4d\u0d1f\u0d3f": 3788,
  "\u2581\u0d38\u0d39\u0d4b\u0d26\u0d30\u0d3f": 3789,
  "\u2581\u0d24\u0d3f\u0d28\u0d4d\u0d2e": 3790,
  "\u2581\u0d2a\u0d4d\u0d30\u0d3e\u0d2a\u0d4d": 3791,
  "\u2581\u0d09\u0d2a\u0d2f\u0d4b\u0d17\u0d3f\u0d15\u0d4d\u0d15": 3792,
  "\".": 3793,
  "\u2581\u0d2a\u0d4d\u0d30\u0d3e\u0d7c\u0d25\u0d28": 3794,
  "\u2581\u0d33\u0d41": 3795,
  "\u0d2f\u0d3e\u0d35\u0d41": 3796,
  "\u2581\u0d0e\u0d23\u0d4d\u0d23\u0d02": 3797,
  "\u0d24\u0d4d\u0d24\u0d47\u0d15\u0d4d\u0d15\u0d4d": 3798,
  "\u2581hide": 3799,
  "\u2581names": 3800,
  "\u2581\u0d05\u0d35\u0d28\u0d4b\u0d1f\u0d4d": 3801,
  "\u2581\u0d2a\u0d41\u0d31\u0d24\u0d4d\u0d24": 3802,
  "\u2581\u0d2e\u0d28\u0d38\u0d4d\u0d38": 3803,
  "\u0d28\u0d3e\u0d7e": 3804,
  "\u0d46\u0d1f\u0d41\u0d2a\u0d4d\u0d2a": 3805,
  "\u2581\u0d06\u0d7e": 3806,
  "red": 3807,
  "\u2581November": 3808,
  "\u2581resurrection": 3809,
  "\u2581\u0d06\u0d7c\u0d15\u0d4d\u0d15\u0d41\u0d02": 3810,
  "\u2581\u0d24\u0d35\u0d23": 3811,
  "\u2581blessing": 3812,
  "\u2581\u0d15\u0d2e\u0d4d\u0d2a\u0d28\u0d3f": 3813,
  "\u2581direction": 3814,
  "\u2581\u0d09\u0d2f\u0d7c\u0d28\u0d4d\u0d28": 3815,
  "\u2581Okay": 3816,
  "\u2581\u0d05\u0d28\u0d40\u0d24\u0d3f": 3817,
  "\u2581\u0d38\u0d2e\u0d3e\u0d27\u0d3e\u0d28\u0d02": 3818,
  "\u0d19\u0d4d\u0d19\u0d33\u0d3f\u0d32\u0d46": 3819,
  "\u2581\u0d09\u0d26\u0d4d": 3820,
  "\u2581organization": 3821,
  "\u2581\u0d15\u0d2f\u0d31": 3822,
  "gan": 3823,
  "\u0d4a\u0d34\u0d3f\u0d15\u0d46": 3824,
  "\u2581commit": 3825,
  "\u2581meaning": 3826,
  "77": 3827,
  "\u0d38\u0d30": 3828,
  "\u2581Pro": 3829,
  "\u2581\u0d2f\u0d3e\u0d23\u0d4d": 3830,
  "ING": 3831,
  "\u2581\u0d38\u0d4d\u0d25\u0d3e\u0d2a\u0d3f\u0d1a\u0d4d\u0d1a": 3832,
  "\u0d3e\u0d2a": 3833,
  "\u2581\u0d2e\u0d41\u0d28\u0d4d\u0d28": 3834,
  "ev": 3835,
  "\u0d36\u0d4d\u0d2f": 3836,
  "\u2581\u0d05\u0d2e\u0d47\u0d30\u0d3f\u0d15\u0d4d\u0d15\u0d7b": 3837,
  "\u0d40\u0d7b": 3838,
  "\u2581complete": 3839,
  "\u2581\u0d05\u0d24\u0d4b": 3840,
  "\u2581\u0d15\u0d23\u0d4d\u0d1f\u0d46\u0d24\u0d4d\u0d24\u0d3f\u0d2f": 3841,
  "\u2581\u0d1a\u0d3f\u0d28\u0d4d\u0d24": 3842,
  "\u0d1f\u0d41\u0d24\u0d4d\u0d24": 3843,
  "\u0d2a\u0d30\u0d2e\u0d3e\u0d2f": 3844,
  "\u2581\u0d2a\u0d4d\u0d30\u0d3e\u0d7c\u0d24\u0d4d\u0d25\u0d3f\u0d15\u0d4d\u0d15": 3845,
  "\u0d24\u0d4d\u0d24\u0d4b\u0d33\u0d02": 3846,
  "\u0d36\u0d41": 3847,
  "\u2581letter": 3848,
  "\u2581\u0d35\u0d4d\u0d2f\u0d24\u0d4d\u0d2f\u0d38\u0d4d": 3849,
  "\u2581flow": 3850,
  "\u2581\u0d06\u0d2f\u0d3f\u0d30\u0d41\u0d28\u0d4d\u0d28": 3851,
  "\u0d3f\u0d28\u0d4b\u0d1f\u0d4d": 3852,
  "\u2581swear": 3853,
  "\u2581\u0d05\u0d31\u0d3f\u0d2f\u0d41\u0d28\u0d4d\u0d28\u0d35\u0d28": 3854,
  "\u2581\u0d2e\u0d47\u0d2f\u0d4d": 3855,
  "\u2581\u0d05\u0d28\u0d41\u0d38\u0d30\u0d3f\u0d15\u0d4d\u0d15": 3856,
  "\u2581\u0d35\u0d3e\u0d38\u0d4d": 3857,
  "\u2581\u0d38\u0d24\u0d4d\u0d2f\u0d35\u0d3f\u0d36\u0d4d\u0d35\u0d3e\u0d38\u0d02": 3858,
  "\u0d28\u0d4d\u0d28\u0d41\u0d02": 3859,
  "\u2581date": 3860,
  "\u2581source": 3861,
  "\u2581\u0d07\u0d24\u0d3e\u0d23\u0d4d": 3862,
  "\u2581\u0d1c\u0d42\u0d7a": 3863,
  "\u2581souls": 3864,
  "\u2581\u0d07\u0d28\u0d3f\u0d2f\u0d41\u0d02": 3865,
  "\u2581\u0d2a\u0d3e\u0d1f": 3866,
  "\u0d12\u0d30\u0d41": 3867,
  "\u2581shows": 3868,
  "\u2581\u0d2a\u0d3f\u0d28\u0d4d\u0d28\u0d46\u0d2f\u0d41\u0d02": 3869,
  "\u2581pro": 3870,
  "\u2581\u0d2b\u0d3e": 3871,
  "\u2581\u0d35\u0d46\u0d31\u0d41\u0d02": 3872,
  "And": 3873,
  "\u2581\u0d35\u0d3f\u0d35\u0d30": 3874,
  "\u2581\u0d07\u0d23": 3875,
  "\u2581\u0d05\u0d30\u0d41\u0d33\u0d2a\u0d4d\u0d2a\u0d3e\u0d1f\u0d41": 3876,
  "\u2581\u0d2a\u0d24\u0d4d\u0d24\u0d41": 3877,
  "\u2581common": 3878,
  "mm": 3879,
  "\u0d7c\u0d24\u0d4d\u0d24\u0d41": 3880,
  "\u2581opened": 3881,
  "\u2581rejoice": 3882,
  "\u2581prove": 3883,
  "ang": 3884,
  "\u0d35\u0d46\u0d28\u0d4d\u0d28\u0d4d": 3885,
  "\u0d3f\u0d15\u0d33\u0d3e\u0d2f": 3886,
  "\u0d3f\u0d32\u0d4d\u0d32\u0d3e\u0d24\u0d4d\u0d24": 3887,
  "\u2581whosoever": 3888,
  "\u2581\u0d24\u0d41\u0d24": 3889,
  "\u2581\u0d26\u0d4d\u0d35\u0d40\u0d2a": 3890,
  "\u0d3f\u0d2a\u0d4d\u0d2a\u0d4b": 3891,
  "\u2581divine": 3892,
  "\u2581\u0d38\u0d4d\u0d35\u0d40\u0d15\u0d30\u0d3f\u0d15\u0d4d\u0d15\u0d41\u0d15\u0d2f\u0d41\u0d02": 3893,
  "\u0d47\u0d15\u0d4d\u0d15\u0d41": 3894,
  "\u2581fish": 3895,
  "\u2581\u0d35\u0d3f\u0d37\u0d2f": 3896,
  "\u2581\u0d15\u0d41\u0d1f": 3897,
  "hi": 3898,
  "ster": 3899,
  "end": 3900,
  "\u2581building": 3901,
  "\u2581\u0d2f\u0d4b\u0d17": 3902,
  "\u2581houses": 3903,
  "\u2581\u0d05\u0d28\u0d47\u0d15\u0d02": 3904,
  "\u2581\u0d15\u0d3e\u0d34\u0d4d\u0d1a": 3905,
  "\u2581\u0d16\u0d41\u0d7c\u0d06\u0d7b": 3906,
  "\u2581\u0d2e\u0d40": 3907,
  "\u2581\u0d2a\u0d30\u0d3f\u0d2a\u0d3e\u0d1f\u0d3f": 3908,
  "\u2581li": 3909,
  "\u2581\u0d31\u0d3f\u0d1a\u0d4d\u0d1a\u0d4d": 3910,
  "\u0d41\u0d15\u0d3e\u0d7c": 3911,
  "\u0d4b\u0d30\u0d41": 3912,
  "\u2581aware": 3913,
  "\u2581\u0d15\u0d1f\u0d32": 3914,
  "\u2581\u0d38\u0d2e\u0d42\u0d39": 3915,
  "\u2581\u0d15\u0d40": 3916,
  "\u2581\u0d39\u0d47\u0d2f\u0d4d": 3917,
  "\u0d47\u0d15\u0d4d\u0d15\u0d41\u0d02": 3918,
  "\u2581kg": 3919,
  "\u2581\u0d15\u0d3e\u0d23\u0d41\u0d28\u0d4d\u0d28\u0d41": 3920,
  "\u2581\u0d33\u0d46": 3921,
  "\u0d28\u0d47\u0d30": 3922,
  "\u2581\u0d2a\u0d4d\u0d30\u0d4b": 3923,
  "\u2581decided": 3924,
  "\u2581\u0d28\u0d3f\u0d36\u0d4d\u0d1a\u0d2f\u0d2e\u0d3e\u0d2f\u0d41\u0d02": 3925,
  "\u0d22": 3926,
  "\u0d3f\u0d30\u0d3f\u0d15\u0d4d\u0d15\u0d41\u0d02": 3927,
  "\u2581\u0d35\u0d3f\u0d33": 3928,
  "\u2581provision": 3929,
  "LE": 3930,
  "\u0d3e\u0d7c\u0d21\u0d4d": 3931,
  "\u2581ears": 3932,
  "\u2581\u0d38\u0d02\u0d2d\u0d35\u0d3f\u0d1a\u0d4d\u0d1a": 3933,
  "out": 3934,
  "\u2581filled": 3935,
  "\u2581late": 3936,
  "\u2581\u0d05\u0d1f\u0d3f": 3937,
  "\u2581\u0d05\u0d2a\u0d4d\u0d30\u0d15\u0d3e\u0d30\u0d02": 3938,
  "\u2581\u0d09\u0d23\u0d4d\u0d1f\u0d41": 3939,
  "\u2581\u0d38\u0d39\u0d4b\u0d26\u0d30\u0d7b": 3940,
  "\u2581severe": 3941,
  "ec": 3942,
  "\u2581happiness": 3943,
  "\u2581\u0d1e": 3944,
  "\u2581\u0d38\u0d26\u0d43\u0d36\u0d35\u0d3e\u0d15\u0d4d\u0d2f\u0d19\u0d4d\u0d19\u0d7e": 3945,
  "\u2581\u0d15\u0d4a\u0d23\u0d4d\u0d1f\u0d3f\u0d30\u0d3f\u0d15\u0d4d\u0d15\u0d41\u0d28\u0d4d\u0d28": 3946,
  "\u2581\u0d2d\u0d35\u0d28": 3947,
  "\u2581inhabitants": 3948,
  "\u2581\u0d2a\u0d41\u0d31": 3949,
  "\u2581period": 3950,
  "ram": 3951,
  "\u2581rejected": 3952,
  "\u2581\u0d12\u0d30\u0d3f\u0d15\u0d4d\u0d15\u0d7d": 3953,
  "\u0d2e\u0d41\u0d23\u0d4d\u0d1f\u0d3e\u0d15\u0d4d\u0d15": 3954,
  "\u2581\u0d2a\u0d31\u0d4d\u0d31\u0d3f\u0d32\u0d4d\u0d32": 3955,
  "\u2581\u0d2e\u0d28\u0d41\u0d37\u0d4d\u0d2f\u0d28\u0d46": 3956,
  "200": 3957,
  "\u2581raise": 3958,
  "\u2581\u0d09\u0d23\u0d4d\u0d1f\u0d3e\u0d15\u0d4d\u0d15\u0d3f": 3959,
  "\u0d38\u0d4d\u0d38\u0d4d": 3960,
  "\u0d3e\u0d31\u0d41\u0d23\u0d4d\u0d1f\u0d4d": 3961,
  "\u2581looked": 3962,
  "\u2581\u0d2c\u0d28\u0d4d\u0d27\u0d2a\u0d4d\u0d2a\u0d46\u0d1f\u0d4d\u0d1f": 3963,
  "\u0d10": 3964,
  "\u2581\u0d0e\u0d28\u0d4d\u0d28\u0d3f\u0d1f\u0d4d\u0d1f": 3965,
  "\u2581\u0d2a\u0d4d\u0d32": 3966,
  "\u0d41\u0d15\u0d2f\u0d41\u0d2e\u0d3f\u0d32\u0d4d\u0d32": 3967,
  "\u2581\u0d38\u0d4d\u0d24\u0d41\u0d24\u0d3f": 3968,
  "\u0d24\u0d4d\u0d24\u0d3f\u0d28\u0d4d\u0d28\u0d41\u0d02": 3969,
  "\u0d2f\u0d3f\u0d32\u0d3e\u0d23\u0d4d": 3970,
  "\u0d41\u0d2e\u0d3e\u0d2f": 3971,
  "\u2581\u0d2c\u0d28\u0d4d\u0d27\u0d02": 3972,
  "\u2581equal": 3973,
  "\u2581\u0d06\u0d15\u0d46": 3974,
  "\u2581\u0d12\u0d30\u0d47": 3975,
  "\u2581University": 3976,
  "\u2581\u0d2a\u0d4d\u0d30\u0d35\u0d43\u0d24\u0d4d\u0d24\u0d3f\u0d15\u0d7e": 3977,
  "\u2581\u0d2c\u0d3e\u0d27\u0d4d\u0d2f\u0d24": 3978,
  "\u0d4a\u0d28\u0d4d\u0d28\u0d4d": 3979,
  "\u0d7b\u0d21\u0d4d": 3980,
  "\u2581issue": 3981,
  "\u2581wonderful": 3982,
  "\u2581\u0d05\u0d35\u0d2f\u0d3f\u0d7d": 3983,
  "\u2581\u0d2e\u0d3e\u0d24\u0d4d\u0d30\u0d2e": 3984,
  "\u0d2a\u0d4d\u0d30\u0d3e": 3985,
  "\u2581due": 3986,
  "\u2581\u0d05\u0d28\u0d28\u0d4d\u0d24\u0d30\u0d02": 3987,
  "\u2581\u0d26\u0d41\u0d03\u0d16": 3988,
  "\u0d3f\u0d35\u0d3f\u0d1f\u0d46": 3989,
  "\u2581Unto": 3990,
  "\u2581\u0d28\u0d2c\u0d3f": 3991,
  "\u2581\u0d38\u0d4d\u0d24\u0d4d\u0d30\u0d40\u0d15\u0d33": 3992,
  "\u0d15\u0d1f": 3993,
  "\u2581waiting": 3994,
  "\u2581\u0d2a\u0d4d\u0d30\u0d3e\u0d2a\u0d3f\u0d1a\u0d4d\u0d1a": 3995,
  "Muhammad": 3996,
  "\u2581further": 3997,
  "\u2581po": 3998,
  "\u2581\u0d28\u0d1f\u0d24\u0d4d\u0d24\u0d41\u0d28\u0d4d\u0d28": 3999,
  "ob": 4000,
  "\u0d36\u0d15\u0d4d\u0d24\u0d3f": 4001,
  "\u2581church": 4002,
  "\u2581reflect": 4003,
  "\u2581\u0d1a\u0d4d\u0d1a\u0d3f": 4004,
  "\u2581\u0d2e\u0d28\u0d41\u0d37\u0d4d\u0d2f\u0d7c": 4005,
  "\u2581\u0d15\u0d3f\u0d1f\u0d15\u0d4d\u0d15": 4006,
  "\u2581\u0d1c\u0d4b\u0d7a": 4007,
  "\u2581bed": 4008,
  "\u2581\u0d2b\u0d4d\u0d30": 4009,
  "\u2581\u0d38\u0d39\u0d3e\u0d2f\u0d3f\u0d15\u0d4d\u0d15\u0d41\u0d02": 4010,
  "si": 4011,
  "\u2581\u0d05\u0d26\u0d4d\u0d26\u0d47\u0d39": 4012,
  "\u2581\u0d26\u0d3e\u0d28\u0d02": 4013,
  "\u2581\u0d35\u0d4d\u0d2f\u0d3e": 4014,
  "\u2581choose": 4015,
  "\u0d35\u0d2f\u0d46": 4016,
  "\u2581chief": 4017,
  "\u2581families": 4018,
  "\u0d35\u0d47\u0d26\u0d28": 4019,
  "\u2581Spirit": 4020,
  "\u2581\u0d21\u0d3f\u0d38\u0d02\u0d2c\u0d7c": 4021,
  "\u0d3f\u0d30\u0d41\u0d28\u0d4d\u0d28\u0d3f\u0d32\u0d4d\u0d32": 4022,
  "\u2581grace": 4023,
  "\u2581homes": 4024,
  "\u2581\u0d2a\u0d41\u0d31\u0d24\u0d4d\u0d24\u0d3e\u0d15\u0d4d\u0d15": 4025,
  "\u2581\u0d36\u0d15\u0d4d\u0d24": 4026,
  "chi": 4027,
  "\u0d35\u0d3f\u0d27\u0d02": 4028,
  "\u0d38\u0d3f\u0d28\u0d46": 4029,
  "\u2581\u0d2e\u0d3e\u0d31\u0d4d\u0d31\u0d02": 4030,
  "\u0d19\u0d4d\u0d19\u0d7e\u0d15\u0d4d\u0d15\u0d41\u0d02": 4031,
  "\u0d30\u0d3e\u0d15": 4032,
  "\u0d47\u0d23\u0d4d\u0d1f\u0d24\u0d41\u0d23\u0d4d\u0d1f\u0d4d": 4033,
  "\u2581regard": 4034,
  "\u0d1e\u0d4d\u0d1a\u0d3f": 4035,
  "\u2581\u0d38\u0d02\u0d30\u0d15\u0d4d\u0d37\u0d3f\u0d15\u0d4d\u0d15": 4036,
  "\u0d2a\u0d4d\u0d30\u0d26\u0d47\u0d36": 4037,
  "\u2581\u0d2a\u0d46\u0d30\u0d41": 4038,
  "ft": 4039,
  "nce": 4040,
  "\u2581shown": 4041,
  "\u0d15\u0d4d\u0d15\u0d41\u0d15\u0d2f\u0d41\u0d02": 4042,
  "\u2581police": 4043,
  "\u2581rise": 4044,
  "\u2581journey": 4045,
  "\u2581vi": 4046,
  "\u2581American": 4047,
  "\u2581favor": 4048,
  "\u2581books": 4049,
  "\u2581burden": 4050,
  "\u2581dust": 4051,
  "\u2581\u0d2a\u0d47\u0d1c\u0d4d": 4052,
  "\u0d31\u0d3f\u0d1e\u0d4d\u0d1e": 4053,
  "\u2581\u0d28\u0d40\u0d2f": 4054,
  "\u2581\u0d35\u0d3f\u0d36\u0d4d\u0d35\u0d3e\u0d38\u0d3f\u0d15\u0d33": 4055,
  "\u0d35\u0d28\u0d3e\u0d23\u0d4d": 4056,
  "\u2581Had": 4057,
  "\u2581destruction": 4058,
  "\u2581class": 4059,
  "\u2581trouble": 4060,
  "\u2581\u0d1a\u0d7c\u0d1a\u0d4d\u0d1a": 4061,
  "\u2581\u0d38\u0d02\u0d18\u0d1f\u0d28": 4062,
  "que": 4063,
  "\u0d24\u0d46\u0d19\u0d4d\u0d15\u0d3f\u0d7d": 4064,
  "\u2581\u0d09\u0d31\u0d19\u0d4d\u0d19": 4065,
  "\u2581\u0d05\u0d1f\u0d3f\u0d2f": 4066,
  "\u2581\u0d32\u0d41": 4067,
  "\u2581South": 4068,
  "\u2581attitude": 4069,
  "wa": 4070,
  "\u0d24\u0d41\u0d2e\u0d3e\u0d2f": 4071,
  "\u0d26\u0d4b": 4072,
  "\u2581\u0d05\u0d35\u0d33": 4073,
  "\u2581\u0d28\u0d32\u0d4d\u0d15": 4074,
  "\u2581\u0d38\u0d4d\u0d25\u0d3e\u0d2a\u0d3f\u0d15\u0d4d\u0d15": 4075,
  "\u0d2a\u0d42\u0d7c\u0d35\u0d02": 4076,
  "\u2581Ask": 4077,
  "\u2581Footnote": 4078,
  "\u2581]": 4079,
  "\u2581\u0d35\u0d3f\u0d27\u0d24\u0d4d\u0d24\u0d3f\u0d7d": 4080,
  "\u2581\u0d1a\u0d46\u0d2f\u0d4d\u0d24\u0d4d": 4081,
  "\u2581\u0d2a\u0d24\u0d4d\u0d30": 4082,
  "\u2581village": 4083,
  "\u2581\u0d24\u0d41\u0d31\u0d15\u0d4d\u0d15": 4084,
  "\u2581\u0d32\u0d40": 4085,
  "\u2581parts": 4086,
  "\u2581\u0d12\u0d34\u0d3f\u0d35\u0d3e\u0d15\u0d4d\u0d15": 4087,
  "\u2581\u0d28\u0d3e\u0d33\u0d46": 4088,
  "\u2581\u0d2e\u0d1f\u0d15\u0d4d\u0d15": 4089,
  "\u0d3f\u0d1f\u0d4d\u0d1f\u0d3f\u0d32\u0d4d\u0d32\u0d3e\u0d24\u0d4d\u0d24": 4090,
  "\u2581\u0d24\u0d4b\u0d28\u0d4d\u0d28\u0d3f\u0d2f": 4091,
  "\u2581speaking": 4092,
  "\u2581\u0d2e\u0d15\u0d4d\u0d15\u0d33": 4093,
  "doers": 4094,
  "\u2581Rather": 4095,
  "\u0d05\u0d35\u0d7c": 4096,
  "\u2581York": 4097,
  "\u2581former": 4098,
  "\u2581ill": 4099,
  "\u2581standing": 4100,
  "law": 4101,
  "\u2581interest": 4102,
  "\u0d41\u0d2e\u0d3e\u0d23\u0d4d": 4103,
  "\u0d46\u0d23\u0d4d\u0d23": 4104,
  "\u2581Only": 4105,
  "\u2581\u0d0e\u0d1f\u0d41\u0d24\u0d4d\u0d24": 4106,
  "\u2581\u0d35\u0d3f\u0d36\u0d4d\u0d35": 4107,
  "\u2581\u0d06\u0d30\u0d4b\u0d17\u0d4d\u0d2f": 4108,
  "\u2581\u0d35\u0d3e\u0d7c\u0d24\u0d4d\u0d24": 4109,
  "\u2581\u0d35\u0d3f\u0d27\u0d02": 4110,
  "\u2581\u0d05\u0d32\u0d4d\u0d32\u0d3e\u0d39\u0d41\u0d35\u0d3f\u0d32\u0d41\u0d02": 4111,
  "\u2581\u0d15\u0d1f\u0d15\u0d4d\u0d15": 4112,
  "\u2581\u0d1a\u0d3f\u0d32\u0d30\u0d46": 4113,
  "\u2581countries": 4114,
  "\u2581decision": 4115,
  "\u2581wrath": 4116,
  "\u0d35\u0d7d": 4117,
  "\u0d37\u0d28": 4118,
  "\u2581\u0d05\u0d28\u0d41\u0d2d\u0d35\u0d3f\u0d15\u0d4d\u0d15": 4119,
  "ring": 4120,
  "\u2581\u0d28\u0d30\u0d15": 4121,
  "\u2581\u0d2b\u0d46": 4122,
  "\u2581beyond": 4123,
  "\u0d0e\u0d28\u0d4d\u0d28": 4124,
  "\u2581talking": 4125,
  "ile": 4126,
  "\u0d35\u0d32\u0d4d\u0d32\u0d4b": 4127,
  "\u2581\u0d24\u0d3e\u0d15\u0d4d\u0d15\u0d40\u0d24\u0d4d": 4128,
  "\u2581\u0d28\u0d3f\u0d36\u0d4d\u0d1a\u0d3f\u0d24": 4129,
  "\u0d24\u0d3f\u0d28\u0d46\u0d2a\u0d4d\u0d2a\u0d31\u0d4d\u0d31\u0d3f": 4130,
  "\u2581\u0d05\u0d32\u0d4d\u0d32\u0d47": 4131,
  "\u2581\u0d32\u0d15\u0d4d\u0d37\u0d4d\u0d2f": 4132,
  "\u0d1f\u0d4d\u0d1f\u0d3f\u0d7d": 4133,
  "\u0d35\u0d7c\u0d17": 4134,
  "\u2581associate": 4135,
  "\u2581\u0d0f\u0d24\u0d46\u0d19\u0d4d\u0d15\u0d3f\u0d32\u0d41\u0d02": 4136,
  "\u2581\u0d2e\u0d41\u0d2e\u0d4d\u0d2a\u0d3e\u0d15\u0d46": 4137,
  "\u0d35\u0d30\u0d3e\u0d2f\u0d3f": 4138,
  "\u2581Daniel": 4139,
  "\u2581guilty": 4140,
  "\u2581role": 4141,
  "\u0d15\u0d4d\u0d15\u0d47": 4142,
  "\u2581\u0d24\u0d3f\u0d30": 4143,
  "\u2581\u0d2e\u0d2f": 4144,
  "\u2581\u0d35\u0d3e\u0d15\u0d4d\u0d15\u0d4d": 4145,
  "\u2581team": 4146,
  "\u0d15\u0d4d\u0d15\u0d41\u0d31\u0d3f\u0d1a\u0d4d\u0d1a\u0d41\u0d33\u0d4d\u0d33": 4147,
  "\u0d35\u0d47\u0d37": 4148,
  "\u2581altar": 4149,
  "\u2581imp": 4150,
  "\u2581\u0d05\u0d32\u0d4d\u0d32\u0d3e\u0d39\u0d41\u0d35\u0d4b\u0d1f\u0d4d": 4151,
  "\u2581\u0d07\u0d35\u0d30": 4152,
  "\u2581principles": 4153,
  "\u2581success": 4154,
  "\u0d3f\u0d2a\u0d4d\u0d2a\u0d3f": 4155,
  "\u2581\u0d12\u0d1f\u0d41\u0d35\u0d3f\u0d7d": 4156,
  "\u2581\u0d2e\u0d3f\u0d15\u0d4d\u0d15": 4157,
  "\u0d13": 4158,
  "\u0d38\u0d41\u0d02": 4159,
  "\u2581per": 4160,
  "\u2581\u0d38\u0d28\u0d4d\u0d24\u0d24\u0d3f": 4161,
  "Our": 4162,
  "\u0d24\u0d3f\u0d32\u0d41\u0d02": 4163,
  "\u0d28\u0d3e\u0d15": 4164,
  "\u2581\u0d09\u0d1a\u0d4d\u0d1a": 4165,
  "\u2581\u0d2f\u0d39\u0d4b\u0d35\u0d47\u0d15\u0d4d\u0d15\u0d41": 4166,
  "\u2581instead": 4167,
  "\u2581middle": 4168,
  "\u2581\u0d1a\u0d3f\u0d32\u0d2a\u0d4d\u0d2a\u0d4b\u0d7e": 4169,
  "\u2581\u0d2a\u0d20\u0d28": 4170,
  "rt": 4171,
  "\u2581trying": 4172,
  "\u25811990": 4173,
  "\u2581\u0d06\u0d30\u0d3e\u0d27\u0d3f\u0d15\u0d4d\u0d15": 4174,
  "\u2581\u0d15\u0d4a\u0d1f\u0d41": 4175,
  "\u2581\u0d28\u0d35\u0d02\u0d2c\u0d7c": 4176,
  "\u2581\u0d2e\u0d4a": 4177,
  "\u25811996": 4178,
  "\u2581\u0d15\u0d32\u0d4d": 4179,
  "\u0d2a\u0d4d\u0d2a\u0d46\u0d1f\u0d41\u0d24\u0d4d\u0d24\u0d3f\u0d2f": 4180,
  "\u2581continued": 4181,
  "\u2581gather": 4182,
  "\u2581tidings": 4183,
  "\u2581\u0d05\u0d35\u0d30\u0d24\u0d3f\u0d7d": 4184,
  "\u2581\u0d35\u0d46\u0d31\u0d41\u0d24\u0d46": 4185,
  "\u0d15\u0d4d\u0d15\u0d2a\u0d4d\u0d2a\u0d46\u0d1f\u0d4d\u0d1f": 4186,
  "\u0d3e\u0d2e\u0d4b": 4187,
  "\u2581\u0d2e\u0d3e\u0d7c": 4188,
  "\u0d2a\u0d26": 4189,
  "\u0d47\u0d7c": 4190,
  "\u2581February": 4191,
  "\u2581\u0d0f\u0d24\u0d3e\u0d28\u0d41\u0d02": 4192,
  "\u2581\u0d26\u0d2f\u0d35\u0d3e\u0d2f\u0d3f": 4193,
  "\u2581\u0d2a\u0d3e\u0d31": 4194,
  "\u0d3f\u0d28\u0d41\u0d02": 4195,
  "\u25812.": 4196,
  "\u2581messenger": 4197,
  "\u2581Life": 4198,
  "\u2581Hello": 4199,
  "\u2581couple": 4200,
  "\u2581\u0d35\u0d28\u0d4d\u0d28\u0d24\u0d4d": 4201,
  "\u2581Babylon": 4202,
  "\u2581sorry": 4203,
  "\u2581thoughts": 4204,
  "\u0d17\u0d41": 4205,
  "\u2581lose": 4206,
  "\u2581\u0d24\u0d4d\u0d24\u0d46": 4207,
  "\u2581itself": 4208,
  "\u2581project": 4209,
  "\u2581vision": 4210,
  "\u2581regarding": 4211,
  "\u2581\u0d15\u0d4d\u0d2f": 4212,
  "\u0d23\u0d4d\u0d1f\u0d3f": 4213,
  "\u0d2f\u0d3e\u0d17": 4214,
  "\u0d31\u0d3f\u0d28\u0d4d\u0d31\u0d46": 4215,
  "\u2581weight": 4216,
  "\u2581\u0d2a\u0d26": 4217,
  "\u2581\u0d2a\u0d3e\u0d32\u0d3f\u0d15\u0d4d\u0d15\u0d41\u0d28\u0d4d\u0d28": 4218,
  "\u2581\u0d2e\u0d3e\u0d38\u0d02": 4219,
  "\u0d3e\u0d24\u0d3f\u0d30\u0d41\u0d28\u0d4d\u0d28": 4220,
  "\u258143": 4221,
  "\u2581\u0d31\u0d4d\u0d31": 4222,
  "gar": 4223,
  "\u0d7b\u0d2e\u0d3e\u0d30": 4224,
  "\u2581\u0d23\u0d4d\u0d1f": 4225,
  "\u0d23\u0d2e\u0d46\u0d28\u0d4d\u0d28": 4226,
  "\u2581force": 4227,
  "\u2581\u0d06\u0d33\u0d41\u0d15\u0d33": 4228,
  "\u2581\u0d36\u0d3e\u0d38\u0d4d\u0d24\u0d4d\u0d30": 4229,
  "\u0d2e\u0d24\u0d3f": 4230,
  "\u0d2f\u0d46\u0d28\u0d4d\u0d28": 4231,
  "\u2581hours": 4232,
  "\u2581\u0d05\u0d1e\u0d4d\u0d1a\u0d41": 4233,
  "\u2581\u0d05\u0d24\u0d4a\u0d30\u0d41": 4234,
  "\u2581Luke": 4235,
  "\u2581forward": 4236,
  "\u2581\u0d24\u0d1f\u0d2f": 4237,
  "\u2581\u0d35\u0d43\u0d15\u0d4d\u0d37": 4238,
  "\u2581\u0d38\u0d24\u0d4d\u0d2f\u0d24\u0d4d\u0d24\u0d46": 4239,
  "\u2581\u0d38\u0d4d\u0d25\u0d3e\u0d28\u0d02": 4240,
  "\u2581goes": 4241,
  "\u2581\u0d0e\u0d28\u0d3f\u0d15\u0d4d\u0d15\u0d31\u0d3f\u0d2f\u0d3e\u0d02": 4242,
  "\u2581\u0d1f\u0d4d\u0d1f": 4243,
  "\u2581\u0d30\u0d39\u0d38\u0d4d\u0d2f": 4244,
  "\u0d15\u0d3e\u0d32\u0d24\u0d4d\u0d24\u0d4d": 4245,
  "\u2581\u0d15\u0d41\u0d31\u0d35": 4246,
  "\u2581Pi": 4247,
  "\u2581\u0d2a\u0d4d\u0d30\u0d35\u0d7c\u0d24\u0d4d\u0d24\u0d3f\u0d1a\u0d4d\u0d1a\u0d41": 4248,
  "In": 4249,
  "\u258148": 4250,
  "\u2581\u0d1a\u0d40": 4251,
  "\u2581\u0d2f\u0d3f\u0d38\u0d4d\u0d30\u0d3e\u0d2f\u0d47\u0d7d": 4252,
  "ction": 4253,
  "\u2581\u0d2f\u0d47\u0d36\u0d41\u0d15\u0d4d\u0d30\u0d3f\u0d38\u0d4d": 4254,
  "sp": 4255,
  "\u2581\u0d24\u0d24": 4256,
  "\u2581\u0d2a\u0d31\u0d2f\u0d41\u0d15\u0d2f\u0d41\u0d02": 4257,
  "ize": 4258,
  "\u2581prophets": 4259,
  "\u2581\u0d07\u0d2a\u0d4d\u0d2a\u0d4b\u0d34\u0d41\u0d02": 4260,
  "\u2581\u0d2b\u0d2f\u0d7d": 4261,
  "\u0d19\u0d4d\u0d19\u0d4d": 4262,
  "\u0d2a\u0d3e\u0d1f": 4263,
  "\u2581\u0d15\u0d41\u0d1f\u0d3f\u0d15\u0d4d\u0d15": 4264,
  "\u0d31\u0d41\u0d15\u0d4d\u0d15": 4265,
  "\u0d35\u0d47\u0d32": 4266,
  "\u0d6f": 4267,
  "\u2581\u0d30\u0d15\u0d4d\u0d24\u0d02": 4268,
  "ER": 4269,
  "\u2581Her": 4270,
  "\u2581disease": 4271,
  "\u2581\u0d0f\u0d24": 4272,
  "\u2581\u0d15\u0d3e\u0d33": 4273,
  "\u2581\u0d35\u0d3e\u0d2f\u0d3f\u0d15\u0d4d\u0d15\u0d41\u0d15": 4274,
  "\u2581advice": 4275,
  "\u2581\u0d05\u0d24\u0d3f\u0d32\u0d46": 4276,
  "\u2581Cha": 4277,
  "\u2581gr": 4278,
  "\u2581\u0d2d\u0d15\u0d4d\u0d37\u0d23": 4279,
  "\u2581Aaron": 4280,
  "\u2581\u0d18": 4281,
  "\u2581\u0d26\u0d41\u0d37\u0d4d": 4282,
  "\u2581Forgiving": 4283,
  "\u0d2e\u0d32": 4284,
  "\u2581Which": 4285,
  "\u2581James": 4286,
  "\u2581tongue": 4287,
  "\u2581\u0d2a\u0d15\u0d30": 4288,
  "\u25811998": 4289,
  "\u2581manner": 4290,
  "\u2581party": 4291,
  "\u2581\u0d2a\u0d4d\u0d30\u0d24\u0d40\u0d15\u0d4d\u0d37\u0d3f\u0d15\u0d4d\u0d15": 4292,
  "\u2581seeking": 4293,
  "\u2581\u0d2d\u0d2f\u0d2a\u0d4d\u0d2a\u0d46\u0d1f": 4294,
  "\u0d3e\u0d23\u0d32\u0d4d\u0d32\u0d4b": 4295,
  "\u2581Keep": 4296,
  "\u2581\u0d13\u0d1f\u0d3f": 4297,
  "\u2581\u0d35\u0d40\u0d23\u0d41": 4298,
  "\u0d28\u0d7d": 4299,
  "\u0d2f\u0d3f\u0d32\u0d4d\u0d32\u0d3e\u0d24\u0d4d\u0d24": 4300,
  "\u2581\u0d15\u0d32\u0d3e": 4301,
  "\u2581\u0d38\u0d24\u0d4d\u0d2f\u0d35\u0d3f\u0d36\u0d4d\u0d35\u0d3e\u0d38\u0d3f\u0d15\u0d33\u0d47": 4302,
  "\u2581\u0d38\u0d3e\u0d27\u0d4d\u0d2f\u0d24": 4303,
  "\u2581First": 4304,
  "\u2581stars": 4305,
  "\u2581\u0d09\u0d1f\u0d28\u0d46": 4306,
  "\u2581\u0d09\u0d24\u0d4d\u0d24\u0d2e": 4307,
  "\u2581\u0d35\u0d46\u0d33\u0d3f\u0d1a\u0d4d\u0d1a": 4308,
  "\u2581Pictures": 4309,
  "\u2581\u0d2e\u0d28\u0d38\u0d4d\u0d38\u0d3f\u0d7d": 4310,
  "hu": 4311,
  "\u2581Remember": 4312,
  "\u2581air": 4313,
  "\u2581\u0d05\u0d2f\u0d3e\u0d33\u0d46": 4314,
  "rid": 4315,
  "\u0d41\u0d2e\u0d3e\u0d2f\u0d3f\u0d30\u0d41\u0d28\u0d4d\u0d28\u0d3f\u0d32\u0d4d\u0d32": 4316,
  "\u2581maintain": 4317,
  "\u2581\u0d0e\u0d24\u0d4d\u0d24\u0d3f\u0d2f": 4318,
  "\u2581\u0d35\u0d3e\u0d2f\u0d3f": 4319,
  "\u0d35\u0d3f\u0d2f": 4320,
  "\u0d38\u0d39": 4321,
  "\u2581Po": 4322,
  "\u2581\u0d24\u0d3f\u0d30\u0d3f\u0d1e\u0d4d\u0d1e\u0d41": 4323,
  "ek": 4324,
  "ual": 4325,
  "\u0d24\u0d3e\u0d2f\u0d3f\u0d30\u0d41\u0d28\u0d4d\u0d28\u0d41": 4326,
  "\u2581denied": 4327,
  "\u2581elect": 4328,
  "\u2581loss": 4329,
  "\u0d15\u0d4d\u0d38": 4330,
  "\u0d2e\u0d4d\u0d2a\u0d3f": 4331,
  "\u2581almost": 4332,
  "\u2581\u0d26\u0d43\u0d37\u0d4d\u0d1f\u0d3e\u0d28\u0d4d\u0d24\u0d19\u0d4d\u0d19\u0d33": 4333,
  "\u0d15\u0d4d\u0d15\u0d40": 4334,
  "\u2581Corinthians": 4335,
  "\u2581\u0d05\u0d31": 4336,
  "\u2581\u0d30\u0d40\u0d24\u0d3f": 4337,
  "\u2581\u0d2a\u0d31\u0d1e\u0d4d\u0d1e\u0d3e\u0d7d": 4338,
  "\u2581\u0d35\u0d4d\u0d2f\u0d3e\u0d1c": 4339,
  "\u0d2a\u0d3e\u0d32": 4340,
  "\u0d3f\u0d28\u0d4d\u0d31\u0d46\u0d2f\u0d41\u0d02": 4341,
  "\u2581national": 4342,
  "\u2581\u0d15\u0d41\u0d1f\u0d4d\u0d1f\u0d3f\u0d15\u0d7e": 4343,
  "\u2581entered": 4344,
  "\u2581\u0d2a\u0d4b\u0d30": 4345,
  "\u2581\u0d05\u0d28\u0d4d\u0d28": 4346,
  "\u2581\u0d05\u0d31\u0d3f\u0d2f\u0d3f\u0d1a\u0d4d\u0d1a\u0d41": 4347,
  "den": 4348,
  "\u2581create": 4349,
  "\u2581\u0d17\u0d4b\u0d24\u0d4d\u0d30": 4350,
  "\u2581\u0d38\u0d4d\u0d35\u0d7c\u0d17": 4351,
  "\u0d3e\u0d24\u0d3f\u0d30\u0d3f\u0d15\u0d4d\u0d15\u0d3e\u0d7b": 4352,
  "\u0d7b\u0d31\u0d4d": 4353,
  "\u258146": 4354,
  "\u2581sake": 4355,
  "\u2581\u0d24\u0d46\u0d33\u0d3f\u0d35\u0d41\u0d15\u0d7e": 4356,
  "\u2581\u0d30\u0d3e\u0d1c\u0d3e\u0d35\u0d3f\u0d28\u0d4d\u0d31\u0d46": 4357,
  "\u2581believing": 4358,
  "\u2581determined": 4359,
  "\u2581forest": 4360,
  "\u2581fulfilled": 4361,
  "\u2581\u0d15\u0d46\u0d1f\u0d4d\u0d1f\u0d3f": 4362,
  "\u0d0f": 4363,
  "\u0d24\u0d4d\u0d24\u0d46\u0d2a\u0d4d\u0d2a\u0d31\u0d4d\u0d31\u0d3f": 4364,
  "\u0d2e\u0d3e\u0d31\u0d4d\u0d31": 4365,
  "\u2581record": 4366,
  "\u2581\u0d24\u0d33\u0d4d\u0d33": 4367,
  "\u2581\u0d2e\u0d31\u0d41\u0d2a\u0d1f\u0d3f": 4368,
  "\u2581nature": 4369,
  "\u2581\u0d09\u0d2f\u0d7c\u0d24\u0d4d\u0d24": 4370,
  "\u2581forbidden": 4371,
  "\u2581laid": 4372,
  "\u2581\u0d2a\u0d46\u0d23\u0d4d\u0d23": 4373,
  "\u2581\u0d36\u0d41\u0d26\u0d4d\u0d27": 4374,
  "\u2581\u0d2a\u0d47\u0d1f\u0d3f": 4375,
  "\u2581\u0d35\u0d46\u0d1f\u0d3f": 4376,
  "\u2581\u0d38\u0d48": 4377,
  "\u2581Scripture": 4378,
  "\u2581Va": 4379,
  "\u2581carried": 4380,
  "\u2581\u0d2a\u0d1f\u0d4d\u0d1f\u0d3f\u0d15": 4381,
  "\u0d15\u0d4d\u0d15\u0d3e\u0d32": 4382,
  "\u0d2e\u0d3e\u0d23\u0d46\u0d28\u0d4d\u0d28\u0d4d": 4383,
  "\u0d24\u0d4d\u0d24\u0d4b\u0d1f\u0d41\u0d02": 4384,
  "\u0d3f\u0d2a\u0d4d\u0d2a\u0d4b\u0d7e": 4385,
  "\u2581j": 4386,
  "\u0d31\u0d4d\u0d31\u0d41": 4387,
  "\u2581effect": 4388,
  "\u0d28\u0d3f\u0d28\u0d4d\u0d31\u0d46": 4389,
  "\u2581Watchtower": 4390,
  "\u2581idea": 4391,
  "\u2581Revelation": 4392,
  "\u2581\u0d2a\u0d4d\u0d30\u0d2f\u0d3e\u0d38": 4393,
  "\u2581\u0d35\u0d3f\u0d32\u0d3e\u0d38": 4394,
  "\u0d2e\u0d32\u0d4d\u0d32\u0d3e\u0d24\u0d46": 4395,
  "\u2581eight": 4396,
  "\u2581\u0d2e\u0d28\u0d38\u0d4d\u0d38\u0d41": 4397,
  "\u0d35\u0d3e\u0d28": 4398,
  "\u2581assigned": 4399,
  "\u2581effort": 4400,
  "\u2581\u0d24\u0d41\u0d35\u0d3f\u0d28\u0d4d\u0d31\u0d46": 4401,
  "\u0d02\u0d15\u0d4a\u0d23\u0d4d\u0d1f\u0d41": 4402,
  "\u0d24\u0d41\u0d2e\u0d3f\u0d32\u0d4d\u0d32": 4403,
  "\u0d40\u0d15\u0d30\u0d23": 4404,
  "\u2581\u0d15\u0d41\u0d32": 4405,
  "\u2581\u0d2e\u0d23\u0d4d\u0d23": 4406,
  "rate": 4407,
  "pen": 4408,
  "\u2581hair": 4409,
  "\u2581truthful": 4410,
  "\u2581\u0d1b": 4411,
  "\u0d2c\u0d32": 4412,
  "\u2581expect": 4413,
  "\u2581inside": 4414,
  "\u0d21\u0d3f\u0d2f": 4415,
  "\u2581stone": 4416,
  "\u2581warning": 4417,
  "\u0d41\u0d15\u0d3e\u0d30": 4418,
  "\u0d41\u0d35\u0d4b": 4419,
  "\u2581joined": 4420,
  "\u2581\u0d2c\u0d4b\u0d27\u0d28\u0d02": 4421,
  "\u2581\u0d38\u0d4d\u0d35\u0d24\u0d28\u0d4d\u0d24\u0d4d\u0d30": 4422,
  "\u2581High": 4423,
  "\u2581\u0d09\u0d23\u0d4d\u0d1f\u0d3e\u0d15\u0d4d\u0d15\u0d3f\u0d2f": 4424,
  "gg": 4425,
  "\u0d2f\u0d3e\u0d23\u0d46\u0d28\u0d4d\u0d28\u0d4d": 4426,
  "\u0d3f\u0d15\u0d4d\u0d15\u0d4a\u0d23\u0d4d\u0d1f\u0d3f\u0d30\u0d3f\u0d15\u0d4d\u0d15": 4427,
  "\u2581greatest": 4428,
  "\u2581\u0d05\u0d32\u0d4d\u0d32\u0d3e\u0d39\u0d41\u0d35\u0d3e\u0d23\u0d4d": 4429,
  "\u2581\u0d2d\u0d3e": 4430,
  "\u2581moment": 4431,
  "\u2581\u0d2e\u0d43\u0d17": 4432,
  "\u2581\u0d38\u0d28\u0d4d\u0d26\u0d47\u0d36": 4433,
  "\u0d28\u0d3f\u0d7d\u0d15\u0d4d\u0d15": 4434,
  "\u2581individuals": 4435,
  "\u2581\u0d35\u0d3e\u0d2f\u0d3f\u0d15\u0d4d\u0d15": 4436,
  "\u2581Pri": 4437,
  "\u2581\u0d26\u0d4b\u0d37": 4438,
  "\u2581\u0d28\u0d3f\u0d30\u0d3e\u0d36": 4439,
  "\u2581\u0d1f\u0d3e": 4440,
  "\u0d1a\u0d28": 4441,
  "\u2581produce": 4442,
  "\u2581\u0d09\u0d2a\u0d2f\u0d4b\u0d17\u0d3f\u0d1a\u0d4d\u0d1a": 4443,
  "\u2581\u0d15\u0d43\u0d2a": 4444,
  "\u0d3e\u0d24\u0d3f\u0d30\u0d3f\u0d15\u0d4d\u0d15\u0d41\u0d15\u0d2f\u0d41\u0d02": 4445,
  "\u2581gardens": 4446,
  "\u2581\u0d2a\u0d30\u0d2e\u0d15\u0d3e\u0d30\u0d41\u0d23\u0d3f\u0d15\u0d28": 4447,
  "\u2581Court": 4448,
  "\u2581\u0d05\u0d24\u0d3f\u0d28": 4449,
  "\u2581\u0d15\u0d4a\u0d28\u0d4d\u0d28": 4450,
  "\u2581\u0d2a\u0d4d\u0d30\u0d15\u0d1f\u0d2e\u0d3e\u0d15\u0d4d\u0d15": 4451,
  "\u2581Make": 4452,
  "\u2581fair": 4453,
  "\u2581thine": 4454,
  "\u2581\u0d2a\u0d3f\u0d36\u0d3e\u0d1a\u0d4d": 4455,
  "pr": 4456,
  "\u2581qualities": 4457,
  "\u2581\u0d15\u0d37\u0d4d\u0d1f": 4458,
  "rn": 4459,
  "\u2581president": 4460,
  "\u2581\u0d15\u0d7d\u0d2a\u0d3f\u0d15\u0d4d\u0d15": 4461,
  "\u2581simply": 4462,
  "\u2581\u0d38\u0d43\u0d37\u0d4d\u0d1f\u0d3f\u0d15\u0d4d\u0d15": 4463,
  "\u2581offered": 4464,
  "\u2581\u0d07\u0d24\u0d3f\u0d28\u0d41": 4465,
  "\u2581waters": 4466,
  "\u2581\u0d1a\u0d46\u0d35\u0d3f": 4467,
  "\u2581attack": 4468,
  "\u2581\u0d15\u0d4d\u0d15\u0d3f": 4469,
  "\u2581\u0d2a\u0d20\u0d3f\u0d1a\u0d4d\u0d1a": 4470,
  "\u2581\u0d2a\u0d30\u0d02": 4471,
  "\u2581\u0d2e\u0d28\u0d4b": 4472,
  "\u0d2e\u0d3e\u0d24\u0d4d\u0d30\u0d02": 4473,
  "\u2581Ye": 4474,
  "\u2581\u0d2a\u0d41\u0d31\u0d24\u0d4d\u0d24\u0d3f\u0d31\u0d19\u0d4d\u0d19": 4475,
  "\u2581\u0d35\u0d32\u0d41\u0d24": 4476,
  "\u2581\u0d38\u0d39\u0d4b": 4477,
  "\u0d32\u0d3e\u0d23\u0d4d": 4478,
  "\u2581available": 4479,
  "\u2581image": 4480,
  "\u2581\u0d06\u0d30\u0d41\u0d1f\u0d46": 4481,
  "\u0d32\u0d42": 4482,
  "\u25818:": 4483,
  "\u2581\u0d36\u0d4d\u0d30\u0d2e\u0d3f\u0d15\u0d4d\u0d15": 4484,
  "\u2581\u0d07\u0d19\u0d4d\u0d19": 4485,
  "\u2581\u0d26\u0d48\u0d35\u0d2e\u0d47": 4486,
  "\u2581\u0d2d\u0d4d\u0d30\u0d3e\u0d28\u0d4d\u0d24": 4487,
  "\u0d2e\u0d3e\u0d23\u0d24\u0d4d": 4488,
  "\u2581\u0d2a\u0d46\u0d1f\u0d4d\u0d1f\u0d46\u0d28\u0d4d\u0d28\u0d4d": 4489,
  "\u2581\u0d2e\u0d31\u0d4d\u0d31\u0d41\u0d33\u0d4d\u0d33\u0d35\u0d30\u0d46": 4490,
  "\u2581\u0d2e\u0d3e\u0d24\u0d43": 4491,
  "\u2581\u0d35\u0d46\u0d33\u0d3f\u0d2a\u0d4d\u0d2a\u0d46\u0d1f\u0d41\u0d24\u0d4d\u0d24": 4492,
  "\u2581\u0d28\u0d19\u0d4d\u0d19\u0d7e": 4493,
  "\u2581\u0d2a\u0d41\u0d30\u0d3e\u0d24\u0d28": 4494,
  "atory": 4495,
  "\u2581\u0d1c\u0d28\u0d19\u0d4d\u0d19\u0d7e": 4496,
  "\u2581touch": 4497,
  "\u2581\u0d05\u0d35\u0d24\u0d30\u0d3f\u0d2a\u0d4d\u0d2a\u0d3f\u0d15\u0d4d\u0d15": 4498,
  "\u2581\u0d28\u0d3e\u0d1f\u0d15": 4499,
  "\u0d2a\u0d40": 4500,
  "\u0d30\u0d3e\u0d1c\u0d4d\u0d2f": 4501,
  "\u0d3e\u0d35\u0d36\u0d4d\u0d2f": 4502,
  "\u2581Ho": 4503,
  "\u2581cried": 4504,
  "\u2581endure": 4505,
  "\u2581\u0d15\u0d4d\u0d37\u0d2e\u0d3f\u0d15\u0d4d\u0d15": 4506,
  "\u2581\u0d1c\u0d28\u0d19\u0d4d\u0d19\u0d7e\u0d15\u0d4d\u0d15\u0d4d": 4507,
  "\u2581\u0d28\u0d42\u0d31\u0d4d\u0d31\u0d3e\u0d23\u0d4d\u0d1f": 4508,
  "\u2581\u0d35\u0d3f\u0d2d\u0d3e\u0d17\u0d02": 4509,
  "\u2581\u0d35\u0d40\u0d30": 4510,
  "\u0d31\u0d41\u0d02": 4511,
  "\u2581drive": 4512,
  "\u2581main": 4513,
  "\u2581\u0d15\u0d2f\u0d31\u0d3f": 4514,
  "\u2581\u0d38\u0d4d\u0d35\u0d3e": 4515,
  "ps": 4516,
  "\u2581dream": 4517,
  "\u2581\u0d05\u0d2a\u0d15\u0d1f": 4518,
  "\u2581\u0d28\u0d42": 4519,
  "\u2581\u0d15\u0d35\u0d3f": 4520,
  "\u0d1a\u0d3e": 4521,
  "\u0d2f\u0d3e\u0d23\u0d41": 4522,
  "\u2581Th": 4523,
  "\u2581proud": 4524,
  "\u2581\u0d1c\u0d21": 4525,
  "\u0d32\u0d4d\u0d32\u0d3e\u0d24\u0d4d\u0d24": 4526,
  "\u2581Acts": 4527,
  "\u2581\u0d07\u0d30": 4528,
  "ny": 4529,
  "\u0d15\u0d33\u0d1e\u0d4d\u0d1e\u0d41": 4530,
  "\u0d2a\u0d4d\u0d2a\u0d46\u0d1f\u0d4d\u0d1f\u0d24\u0d4d": 4531,
  "\u2581\u0d2d\u0d3e\u0d17\u0d02": 4532,
  "\u0d7b\u0d2e\u0d3e\u0d7c": 4533,
  "\u2581river": 4534,
  "\u2581\u0d24\u0d42": 4535,
  "\u2581\u0d2a\u0d46\u0d7a\u0d15\u0d41\u0d1f\u0d4d\u0d1f\u0d3f": 4536,
  "\u2581\u0d2a\u0d4d\u0d30\u0d2e\u0d3e\u0d23": 4537,
  "\u2581\u0d35\u0d1a\u0d28": 4538,
  "\u2581\u0d35\u0d4b": 4539,
  "\u0d41\u0d2e\u0d41\u0d23\u0d4d\u0d1f\u0d4d": 4540,
  "\u2581\u0d38\u0d02\u0d38\u0d4d": 4541,
  "\u2581Two": 4542,
  "\u2581garden": 4543,
  "\u2581\u0d15\u0d23\u0d15\u0d4d\u0d15\u0d3e\u0d15\u0d4d\u0d15": 4544,
  "\u2581\u0d21\u0d3e": 4545,
  "RE": 4546,
  "\u2581older": 4547,
  "\u2581placed": 4548,
  "\u2581\u0d26\u0d3f\u0d35\u0d4d\u0d2f": 4549,
  "\u2581\u0d28\u0d1f": 4550,
  "ick": 4551,
  "\u2581disbelieved": 4552,
  "\u0d30\u0d4b\u0d17": 4553,
  "\u2581\u0d2a\u0d42\u0d7c\u0d23\u0d4d\u0d23": 4554,
  "\u2581\u0d2f\u0d47": 4555,
  "\u2581\u0d36\u0d4d\u0d30": 4556,
  "\u2581\u0d2a\u0d24\u0d4d\u0d30\u0d4a\u0d38\u0d4d": 4557,
  "\u2581\u0d36\u0d3e\u0d28\u0d4d\u0d24": 4558,
  "\u0d15\u0d41\u0d32": 4559,
  "\u0d30\u0d41\u0d24\u0d47": 4560,
  "\u2581allowed": 4561,
  "\u2581\u0d15\u0d3e\u0d23\u0d3f\u0d1a\u0d4d\u0d1a\u0d41": 4562,
  "\u2581\u0d28\u0d3f\u0d37\u0d4d": 4563,
  "\u2581\u0d15\u0d2f\u0d4d\u0d2f": 4564,
  "\u2581\u0d28\u0d3e\u0d25\u0d28\u0d3f\u0d7d": 4565,
  "\u2581\u0d36\u0d24\u0d2e\u0d3e\u0d28\u0d02": 4566,
  "\u2581\u0d38\u0d26\u0d4d": 4567,
  "ious": 4568,
  "\u0d41\u0d28\u0d4d\u0d28\u0d35\u0d30\u0d46": 4569,
  "\u2581list": 4570,
  "\u2581\u0d2a\u0d3e\u0d7c\u0d15\u0d4d\u0d15": 4571,
  "\u2581wonder": 4572,
  "\u2581\u0d24\u0d28\u0d3f\u0d15\u0d4d\u0d15\u0d41": 4573,
  "\u0d4a\u0d30\u0d3f\u0d15\u0d4d\u0d15\u0d32\u0d41\u0d02": 4574,
  "\u2581Romans": 4575,
  "\u2581hidden": 4576,
  "\u2581\u0d2c\u0d48\u0d2c\u0d3f\u0d33": 4577,
  "\u2581\u0d35\u0d4d\u0d2f\u0d3e\u0d2a": 4578,
  "\u0d24\u0d28": 4579,
  "\u2581throne": 4580,
  "\u2581\u0d2e\u0d41\u0d2e\u0d4d\u0d2a": 4581,
  "\u2581bow": 4582,
  "\u0d36\u0d40\u0d32": 4583,
  "\u2581Samuel": 4584,
  "\u2581clearly": 4585,
  "\u0d02\u0d17\u0d4d": 4586,
  "\u0d28\u0d3e\u0d2f\u0d3f\u0d30\u0d41\u0d28\u0d4d\u0d28\u0d41": 4587,
  "\u0d3f\u0d19\u0d4d\u0d19\u0d28\u0d46": 4588,
  "\u2581\u0d15\u0d32\u0d4d\u0d2a\u0d28": 4589,
  "\u2581\u0d2a\u0d3f\u0d24\u0d3e\u0d35\u0d4d": 4590,
  "\u2581\u0d2a\u0d4d\u0d30\u0d24\u0d4d\u0d2f\u0d15\u0d4d\u0d37": 4591,
  "\u0d35\u0d23\u0d4d\u0d23\u0d02": 4592,
  "\u2581declared": 4593,
  "\u2581\u0d15\u0d3e\u0d2e": 4594,
  "\u2581\u0d2a\u0d32\u0d30\u0d41\u0d02": 4595,
  "\u2581fail": 4596,
  "led": 4597,
  "\u0d19\u0d4d\u0d19\u0d41\u0d02": 4598,
  "\u0d41\u0d2e\u0d46\u0d28\u0d4d\u0d28\u0d41": 4599,
  "\u0d41\u0d35\u0d3e": 4600,
  "\u2581female": 4601,
  "\u2581grateful": 4602,
  "\u2581\u0d2e\u0d4d\u0d2a\u0d4b\u0d7e": 4603,
  "\u2581\u0d35\u0d02\u0d36": 4604,
  "\u2581\u0d36\u0d2c\u0d4d\u0d26\u0d02": 4605,
  "\u2581Nay": 4606,
  "\u2581\u0d1a\u0d4b\u0d26\u0d4d\u0d2f": 4607,
  "\u0d1a\u0d46": 4608,
  "\u0d41\u0d1f\u0d46\u0d2f\u0d41\u0d02": 4609,
  "\u2581\u0d06\u0d31\u0d41": 4610,
  "\u2581\u0d12\u0d31\u0d4d\u0d31": 4611,
  "\u2581broken": 4612,
  "\u2581\u0d05\u0d35\u0d38\u0d30\u0d02": 4613,
  "ww": 4614,
  "\u2581duty": 4615,
  "\u2581patience": 4616,
  "\u2581\u0d0f\u0d24\u0d3e\u0d23\u0d4d\u0d1f\u0d4d": 4617,
  "\u2581\u0d15\u0d3e\u0d23\u0d41\u0d02": 4618,
  "\u0d28\u0d4d\u0d24\u0d3e": 4619,
  "\u2581\u0d2e\u0d47\u0d16\u0d32": 4620,
  "ral": 4621,
  "\u0d3e\u0d24\u0d4d\u0d2e": 4622,
  "\u2581\u0d15\u0d41\u0d1f\u0d4d\u0d1f\u0d3f\u0d15\u0d33\u0d46": 4623,
  "\u2581\u0d32\u0d47\u0d16\u0d28": 4624,
  "\u2581respond": 4625,
  "\u0d3e\u0d28\u0d3e": 4626,
  "\u258153": 4627,
  "\u2581IS": 4628,
  "\u2581\u0d06\u0d30\u0d4b": 4629,
  "ded": 4630,
  "\u2581IN": 4631,
  "\u2581willing": 4632,
  "\u2581\u0d15\u0d48\u0d15\u0d7e": 4633,
  "\u2581Every": 4634,
  "\u2581birds": 4635,
  "\u2581\u0d28\u0d7d\u0d15\u0d3e\u0d7b": 4636,
  "\u2581\u0d2a\u0d57\u0d32\u0d4b\u0d38\u0d4d": 4637,
  "\u0d2e\u0d23\u0d3f": 4638,
  "\u0d36\u0d4b": 4639,
  "\u2581Devil": 4640,
  "\u2581permission": 4641,
  "\u2581\u0d09\u0d24\u0d4d\u0d24\u0d2e\u0d2e\u0d3e\u0d2f": 4642,
  "\u2581\u0d2e\u0d41\u0d2e\u0d4d\u0d2a\u0d46": 4643,
  "\u0d27\u0d3e": 4644,
  "\u0d3f\u0d15\u0d4d\u0d15\u0d4a\u0d23\u0d4d\u0d1f\u0d4d": 4645,
  "\u2581violence": 4646,
  "\u2581\u0d38\u0d02\u0d35\u0d3f\u0d27\u0d3e\u0d28": 4647,
  "\u0d38\u0d02\u0d17": 4648,
  "\u0d3e\u0d35\u0d41\u0d15\u0d2f\u0d41\u0d02": 4649,
  "\u0d4a\u0d15\u0d4d\u0d15\u0d46\u0d2f\u0d41\u0d02": 4650,
  "\u2581thank": 4651,
  "tar": 4652,
  "\u0d15\u0d4d\u0d30\u0d3f\u0d2f": 4653,
  "\u0d2e\u0d3e\u0d24\u0d4d\u0d30": 4654,
  "\u2581heed": 4655,
  "\u2581\u0d24\u0d4d\u0d35": 4656,
  "\u2581\u0d26\u0d47\u0d36\u0d24\u0d4d\u0d24\u0d41": 4657,
  "\u2581\u0d28\u0d3f\u0d36\u0d4d\u0d1a\u0d2f\u0d3f\u0d1a\u0d4d\u0d1a": 4658,
  "\u2581\u0d2e\u0d4b\u0d39": 4659,
  "\u0d28\u0d4d\u0d24\u0d41": 4660,
  "\u0d41\u0d28\u0d4d\u0d28\u0d24\u0d3f\u0d28\u0d46\u0d2a\u0d4d\u0d2a\u0d31\u0d4d\u0d31\u0d3f": 4661,
  "\u2581\u0d13\u0d2b\u0d40\u0d38": 4662,
  "\u0d2f\u0d32\u0d4d\u0d32\u0d3e\u0d24\u0d46": 4663,
  "\u2581recompense": 4664,
  "\u2581\u0d06\u0d30\u0d46": 4665,
  "\u0d15\u0d4d\u0d15\u0d3e\u0d30\u0d46": 4666,
  "\u2581observe": 4667,
  "\u2581pleased": 4668,
  "\u2581\u0d2f\u0d47\u0d36\u0d41\u0d35\u0d3f\u0d28\u0d46": 4669,
  "\u2581\u0d35\u0d7b": 4670,
  "\u2581physical": 4671,
  "\u2581prayed": 4672,
  "line": 4673,
  "\u258115:": 4674,
  "\u2581\u0d06\u0d33": 4675,
  "\u0d2e\u0d3e\u0d38": 4676,
  "\u0d3e\u0d34\u0d4d\u0d1a": 4677,
  "\u0d4a\u0d24\u0d4d\u0d24": 4678,
  "\u2581plain": 4679,
  "\u2581\u0d2a\u0d30\u0d40\u0d15\u0d4d\u0d37\u0d23": 4680,
  "cy": 4681,
  "\u0d2a\u0d4d\u0d2a\u0d46\u0d1f\u0d41\u0d28\u0d4d\u0d28\u0d24\u0d4d": 4682,
  "\u2581\u0d05\u0d1f": 4683,
  "\u2581\u0d15\u0d30\u0d41\u0d24\u0d3f": 4684,
  "\u2581\u0d32\u0d15\u0d4d\u0d37": 4685,
  "\u0d4d\u0d2f\u0d24": 4686,
  "\u2581ge": 4687,
  "\u2581reached": 4688,
  "\u2581\u0d24\u0d3f\u0d30\u0d1e\u0d4d\u0d1e\u0d46\u0d1f\u0d41\u0d24\u0d4d\u0d24": 4689,
  "\u0d3f\u0d1f\u0d24\u0d4d\u0d24\u0d4b\u0d33\u0d02": 4690,
  "\u2581\u0d1a\u0d46\u0d2f\u0d4d\u0d2f\u0d3e\u0d28": 4691,
  "\u2581Knowing": 4692,
  "\u2581yes": 4693,
  "\u2581\u0d09\u0d7e": 4694,
  "\u2581camp": 4695,
  "\u2581strive": 4696,
  "\u2581\u0d05\u0d24\u0d3f\u0d15\u0d4d\u0d30\u0d2e\u0d02": 4697,
  "\u0d15\u0d34\u0d3f\u0d1e\u0d4d\u0d1e": 4698,
  "\u2581\u0d05\u0d15\u0d4d\u0d30\u0d2e\u0d02": 4699,
  "\u2581\u0d28\u0d3f\u0d24\u0d4d\u0d2f\u0d35\u0d3e\u0d38\u0d3f\u0d15\u0d33": 4700,
  "rus": 4701,
  "\u2581natural": 4702,
  "\u2581\u0d17\u0d46": 4703,
  "\u2581\u0d38\u0d42\u0d15\u0d4d\u0d37\u0d3f\u0d15\u0d4d\u0d15": 4704,
  "Why": 4705,
  "\u2581spiritually": 4706,
  "\u2581subject": 4707,
  "\u2581\u0d35\u0d3e\u0d2f": 4708,
  "\u2581isn": 4709,
  "\u2581plan": 4710,
  "\u2581\u0d05\u0d7c\u0d25\u0d02": 4711,
  "\u2581\u0d0e\u0d28\u0d3f\u0d15\u0d4d\u0d15\u0d41\u0d02": 4712,
  "\u2581British": 4713,
  "\u2581unless": 4714,
  "\u2581week": 4715,
  "\u2581\u0d12\u0d30\u0d41\u0d2e\u0d3f\u0d1a\u0d4d\u0d1a\u0d41\u0d15\u0d42\u0d1f\u0d4d\u0d1f": 4716,
  "\u0d1f\u0d3f\u0d1a\u0d4d\u0d1a": 4717,
  "\u2581\u0d28\u0d40\u0d2f\u0d41\u0d02": 4718,
  "\u0d24\u0d4d\u0d24\u0d4b": 4719,
  "\u2581\u0d05\u0d24\u0d41\u0d2a\u0d4b\u0d32\u0d46": 4720,
  "\u2581\u0d05\u0d35\u0d38\u0d30": 4721,
  "\u2581\u0d28\u0d1f\u0d2a\u0d1f\u0d3f": 4722,
  "\u2581\u0d35\u0d3f\u0d1f\u0d4d\u0d1f\u0d4d": 4723,
  "ier": 4724,
  "\u2581branch": 4725,
  "\u2581entire": 4726,
  "\u2581failed": 4727,
  "\u2581\u0d1a\u0d24\u0d41\u0d30\u0d02": 4728,
  "qua": 4729,
  "\u0d1f\u0d4d\u0d1f\u0d4b": 4730,
  "\u2581top": 4731,
  "\u2581\u0d0e\u0d32\u0d4d\u0d32\u0d3e\u0d35\u0d7c\u0d15\u0d4d\u0d15\u0d41\u0d02": 4732,
  "\u2581\u0d2a\u0d4b\u0d15\u0d3e\u0d7b": 4733,
  "\u0d17\u0d3f": 4734,
  "\u2581sub": 4735,
  "\u2581round": 4736,
  "\u2581\u0d2e\u0d3e\u0d7c\u0d17\u0d02": 4737,
  "\u00e9": 4738,
  "\u2581efforts": 4739,
  "\u2581freedom": 4740,
  "\u2581portion": 4741,
  "\u2581spent": 4742,
  "\u0d38\u0d3f\u0d2f": 4743,
  "\u2581okay": 4744,
  "\u2581warner": 4745,
  "\u2581\u0d2a\u0d3f\u0d28\u0d4d\u0d28": 4746,
  "\u0d47\u0d31\u0d3f\u0d2f": 4747,
  "\u2581\u0d2e\u0d47\u0d18": 4748,
  "\u0d3f\u0d2a\u0d4d\u0d2a\u0d3f\u0d7b": 4749,
  "\u2581Mal": 4750,
  "\u2581\u0d06\u0d38\u0d4d\u0d35\u0d26\u0d3f\u0d15\u0d4d\u0d15": 4751,
  "\u2581\u0d2a\u0d19\u0d4d\u0d15\u0d41": 4752,
  "\u2581\u0d2e\u0d23\u0d3f": 4753,
  "av": 4754,
  "ned": 4755,
  "\u2581\u0d2a\u0d3f\u0d1f\u0d3f\u0d15\u0d42\u0d1f": 4756,
  "we": 4757,
  "\u0d30\u0d02\u0d17\u0d24\u0d4d\u0d24": 4758,
  "\u0d35\u0d3e\u0d38\u0d3f": 4759,
  "\u2581establish": 4760,
  "\u2581\u0d0e\u0d28\u0d4d\u0d28\u0d24\u0d3e\u0d23\u0d4d": 4761,
  "\u0d1f\u0d40": 4762,
  "\u2581Credit": 4763,
  "\u2581\u0d2e\u0d42\u0d28\u0d4d\u0d28\u0d4d": 4764,
  "ept": 4765,
  "ving": 4766,
  "\u2581throughout": 4767,
  "\u2581\u0d0e\u0d33\u0d41\u0d2a\u0d4d\u0d2a": 4768,
  "\u0d3e\u0d2f\u0d3f\u0d30\u0d3f\u0d15\u0d4d\u0d15\u0d3e\u0d02": 4769,
  "\u2581seeing": 4770,
  "cade": 4771,
  "\u258155": 4772,
  "\u2581seems": 4773,
  "\u2581\u0d05\u0d35\u0d28\u0d3f\u0d7d": 4774,
  "\u2581\u0d2a\u0d4b\u0d15\u0d41\u0d28\u0d4d\u0d28\u0d24\u0d4d": 4775,
  "\u2581\u0d35\u0d46\u0d33\u0d3f": 4776,
  "ib": 4777,
  "\u0d4a\u0d1f\u0d4d\u0d1f\u0d41\u0d02": 4778,
  "\u2581Still": 4779,
  "\u2581gate": 4780,
  "\u2581played": 4781,
  "\u2581travel": 4782,
  "\u2581\u0d24\u0d2f\u0d4d\u0d2f\u0d3e\u0d31": 4783,
  "\u2581\u0d28\u0d7d\u0d15\u0d41\u0d28\u0d4d\u0d28\u0d24\u0d4d": 4784,
  "\u2581\u0d2c\u0d47": 4785,
  "\u2581\u0d35\u0d3f\u0d27\u0d3f\u0d15\u0d4d\u0d15": 4786,
  "\u0d15\u0d42\u0d1f\u0d46": 4787,
  "\u0d28\u0d3e\u0d25": 4788,
  "\u2581multitude": 4789,
  "\u2581\u0d2e\u0d3e\u0d23\u0d4d": 4790,
  "\u2581\u0d05\u0d15\u0d4d\u0d37\u0d30": 4791,
  "\u0d24\u0d4a": 4792,
  "\u258180": 4793,
  "\u2581Jeremiah": 4794,
  "\u2581\u0d2a\u0d41\u0d31\u0d2a\u0d4d\u0d2a\u0d46\u0d1f": 4795,
  "\u2581\u0d38\u0d4d\u0d24\u0d4d\u0d30\u0d40\u0d15\u0d7e": 4796,
  "iah": 4797,
  "\u2581About": 4798,
  "\u2581escape": 4799,
  "\u2581promises": 4800,
  "\u2581road": 4801,
  "\u2581several": 4802,
  "\u2581\u0d1a\u0d46\u0d2f\u0d4d\u0d2f\u0d23\u0d02": 4803,
  "\u2581\u0d2a\u0d3e\u0d15": 4804,
  "\u2581\u0d12\u0d30\u0d41\u0d2a\u0d3e\u0d1f\u0d4d": 4805,
  "\u2581Witness": 4806,
  "\u2581publication": 4807,
  "\u2581\u0d1a\u0d42\u0d1f": 4808,
  "\u2581\u0d2e\u0d28\u0d38\u0d4d\u0d38\u0d3f\u0d32\u0d3e\u0d15\u0d4d\u0d15\u0d3f\u0d2f": 4809,
  "\u2581\u0d38\u0d4d\u0d28\u0d47\u0d39": 4810,
  "\u2581marry": 4811,
  "\u2581possess": 4812,
  "\u2581salvation": 4813,
  "\u2581\u0d05\u0d2d\u0d3f": 4814,
  "AL": 4815,
  "\u2581arrived": 4816,
  "\u2581circumstances": 4817,
  "\u2581display": 4818,
  "\u2581inheritance": 4819,
  "\u2581knowing": 4820,
  "\u2581\u0d1a\u0d4b": 4821,
  "dy": 4822,
  "\u2581Qur": 4823,
  "\u2581acts": 4824,
  "\u2581cattle": 4825,
  "\u0d24\u0d46\u0d28\u0d4d\u0d28\u0d41": 4826,
  "\u0d28\u0d4b\u0d1f\u0d41": 4827,
  "\u0d3e\u0d35\u0d41\u0d28\u0d4d\u0d28\u0d24\u0d3e\u0d23\u0d4d": 4828,
  "\u2581Watch": 4829,
  "\u2581\u0d35\u0d1a\u0d28\u0d19\u0d4d\u0d19\u0d7e": 4830,
  "\u2581\u0d39\u0d32\u0d4b": 4831,
  "\u0d15\u0d4a\u0d1f\u0d41\u0d24\u0d4d\u0d24\u0d41": 4832,
  "\u0d3f\u0d32\u0d3e": 4833,
  "\u2581\u0d05\u0d28\u0d41\u0d2d\u0d35": 4834,
  "\u2581\u0d30\u0d3e\u0d37\u0d4d": 4835,
  "\u0d30\u0d3e\u0d23\u0d4d": 4836,
  "\u2581Roman": 4837,
  "\u2581\u0d1a\u0d46\u0d32\u0d35": 4838,
  "\u2581\u0d28\u0d40\u0d15\u0d4d\u0d15\u0d02": 4839,
  "\u2581\u0d2a\u0d4d\u0d30\u0d38\u0d3f\u0d26\u0d4d\u0d27\u0d40\u0d15\u0d30\u0d3f\u0d1a\u0d4d\u0d1a": 4840,
  "ld": 4841,
  "\u2581\u0d07\u0d2a\u0d4d\u0d2a\u0d4a": 4842,
  "\u2581\u0d13\u0d7c\u0d2e": 4843,
  "\u2581\u0d15\u0d4a\u0d23\u0d4d\u0d1f\u0d41\u0d35\u0d28\u0d4d\u0d28": 4844,
  "\u2581\u0d38\u0d3e\u0d39\u0d3f\u0d24\u0d4d\u0d2f": 4845,
  "\u2581Stop": 4846,
  "\u2581black": 4847,
  "\u2581\u0d15\u0d43\u0d37\u0d3f": 4848,
  "port": 4849,
  "\u0d27\u0d3e\u0d30": 4850,
  "\u2581\u0d15\u0d41\u0d1f\u0d4d\u0d1f\u0d3f\u0d15\u0d33": 4851,
  "\u2581\u0d2a\u0d4d\u0d30\u0d35\u0d3e\u0d1a\u0d15\u0d7b": 4852,
  "\u2581\u0d2e\u0d31\u0d4d\u0d31": 4853,
  "\u0d15\u0d42\u0d1f\u0d4d\u0d1f": 4854,
  "\u0d24\u0d4d\u0d24\u0d4a": 4855,
  "\u0d24\u0d4d\u0d24\u0d46\u0d15\u0d4d\u0d15\u0d41\u0d31\u0d3f\u0d1a\u0d4d\u0d1a\u0d4d": 4856,
  "\u0d2a\u0d15\u0d4d\u0d37": 4857,
  "\u0d38\u0d48": 4858,
  "\u2581Before": 4859,
  "\u2581education": 4860,
  "\u2581ransom": 4861,
  "\u2581\u0d12\u0d28\u0d4d\u0d28\u0d3e\u0d2e": 4862,
  "\u2581\u0d2c\u0d4d\u0d30\u0d3f\u0d1f\u0d4d\u0d1f": 4863,
  "\u2581buy": 4864,
  "\u2581contact": 4865,
  "\u2581oil": 4866,
  "\u0d19\u0d4d\u0d15\u0d3e": 4867,
  "\u2581thousands": 4868,
  "\u2581\u0d05\u0d32\u0d4d\u0d32\u0d3e\u0d24\u0d46": 4869,
  "\u2581\u0d1a\u0d47\u0d7c\u0d28\u0d4d\u0d28": 4870,
  "\u2581\u0d38\u0d3f\u0d02\u0d39\u0d3e\u0d38\u0d28": 4871,
  "\u25811950": 4872,
  "\u2581grant": 4873,
  "\u2581influence": 4874,
  "\u2581\u0d23\u0d41": 4875,
  "\u2581\u0d2e\u0d40\u0d31\u0d4d\u0d31\u0d7c": 4876,
  "\u2581\u0d36\u0d35": 4877,
  "\u2581\u0d13\u0d1f": 4878,
  "\u0d19\u0d4d\u0d19\u0d3f\u0d2f": 4879,
  "\u25812005": 4880,
  "\u2581exercise": 4881,
  "\u2581granted": 4882,
  "\u2581household": 4883,
  "\u2581north": 4884,
  "\u2581program": 4885,
  "\u2581\u0d36\u0d4d\u0d30\u0d26\u0d4d\u0d27\u0d3f\u0d15\u0d4d\u0d15\u0d41\u0d15": 4886,
  "\u0d2e\u0d24\u0d4d\u0d30\u0d46": 4887,
  "\u0d30\u0d23\u0d02": 4888,
  "\u2581com": 4889,
  "\u2581train": 4890,
  "\u2581\u0d05\u0d1f\u0d2f\u0d3e\u0d33": 4891,
  "\u2581\u0d35\u0d40\u0d23": 4892,
  "\u2581\u0d07\u0d31\u0d15\u0d4d\u0d15": 4893,
  "\u0d24\u0d4b\u0d1f\u0d46": 4894,
  "\u0d3e\u0d1e\u0d4d\u0d1e": 4895,
  "\u258114:": 4896,
  "\u2581\u0d06\u0d35\u0d36\u0d4d\u0d2f\u0d2e\u0d3e\u0d2f": 4897,
  "\u2581earlier": 4898,
  "\u2581\u0d06\u0d2f\u0d41\u0d27": 4899,
  "\u2581\u0d09\u0d32\u0d4d": 4900,
  "lin": 4901,
  "ray": 4902,
  "\u0d2a\u0d4d\u0d2a\u0d4b\u0d34\u0d41\u0d02": 4903,
  "\u2581Church": 4904,
  "\u2581\u0d15\u0d3e\u0d32\u0d24\u0d4d\u0d24\u0d4d": 4905,
  "\u2581\u0d15\u0d41\u0d02": 4906,
  "\u2581\u0d1a\u0d46\u0d2f\u0d4d\u0d2f\u0d3e\u0d02": 4907,
  "\u0d3f\u0d1a\u0d4d\u0d1a\u0d3f\u0d30\u0d3f\u0d15\u0d4d\u0d15\u0d41\u0d28\u0d4d\u0d28\u0d41": 4908,
  "\u0d3f\u0d28\u0d4d\u0d28\u0d41\u0d02": 4909,
  "\u2581\u0d2a\u0d41\u0d30\u0d41\u0d37\u0d28\u0d4d\u0d2e\u0d3e\u0d30": 4910,
  "\u2581\u0d38\u0d02\u0d2d\u0d35": 4911,
  "\u2581hearing": 4912,
  "\u0d2c\u0d42": 4913,
  "\u2581warn": 4914,
  "\u2581\u0d06\u0d30\u0d46\u0d2f\u0d41\u0d02": 4915,
  "\u2581\u0d32\u0d47\u0d16\u0d28\u0d02": 4916,
  "\u2581repent": 4917,
  "\u2581\u0d24\u0d40\u0d30\u0d41\u0d2e\u0d3e\u0d28": 4918,
  "\u2581\u0d26\u0d47\u0d39": 4919,
  "\u2581\u0d2a\u0d30\u0d3f\u0d36\u0d4b\u0d27\u0d3f\u0d15\u0d4d\u0d15": 4920,
  "\u2581Par": 4921,
  "\u2581\u0d1c\u0d40\u0d35\u0d3f\u0d24\u0d24\u0d4d\u0d24\u0d3f\u0d7d": 4922,
  "nic": 4923,
  "\u2581Sc": 4924,
  "\u2581terrible": 4925,
  "\u2581wronged": 4926,
  "\u2581\u0d2a\u0d48": 4927,
  "Who": 4928,
  "\u0d3f\u0d32\u0d4d\u0d32\u0d32\u0d4d\u0d32\u0d4b": 4929,
  "\u2581\u0d28\u0d3f\u0d2f\u0d2e\u0d02": 4930,
  "ries": 4931,
  "\u0d31\u0d4d\u0d31\u0d3e": 4932,
  "\u2581\u0d15\u0d1f\u0d2a\u0d4d\u0d2a\u0d3e\u0d1f\u0d4d": 4933,
  "ear": 4934,
  "\u2581Arch": 4935,
  "\u2581Last": 4936,
  "\u2581\u0d05\u0d2d\u0d3f\u0d2a\u0d4d\u0d30\u0d3e\u0d2f": 4937,
  "with": 4938,
  "\u0d41\u0d28\u0d4d\u0d28\u0d3f\u0d32\u0d4d\u0d32\u0d47": 4939,
  "\u2581\u0d30\u0d42\u0d2a\u0d02": 4940,
  "\u2581\u0d38\u0d43\u0d37\u0d4d\u0d1f\u0d3f\u0d1a\u0d4d\u0d1a\u0d41": 4941,
  "Q": 4942,
  "\u0d3e\u0d24\u0d4d\u0d24\u0d24\u0d4d": 4943,
  "\u2581safe": 4944,
  "\u2581\u0d07\u0d24\u0d3f\u0d28\u0d46": 4945,
  "\u2581\u0d15\u0d34\u0d3f\u0d35": 4946,
  "\u0d1c\u0d4d\u0d1e\u0d3e\u0d28": 4947,
  "\u0d2e\u0d3e\u0d31": 4948,
  "\u0d2e\u0d46\u0d28\u0d4d\u0d28\u0d41": 4949,
  "\u2581\u0d38\u0d41\u0d35\u0d3e\u0d7c\u0d24\u0d4d\u0d24": 4950,
  "\u0d15\u0d4a\u0d7e\u0d15": 4951,
  "\u2581distress": 4952,
  "\u2581preach": 4953,
  "\u2581\u0d24\u0d1f\u0d35": 4954,
  "\u2581\u0d2a\u0d4d\u0d30\u0d35\u0d47\u0d36\u0d3f\u0d2a\u0d4d\u0d2a\u0d3f\u0d15\u0d4d\u0d15": 4955,
  "put": 4956,
  "\u0d15\u0d4d\u0d15\u0d41\u0d28\u0d4d\u0d28\u0d24\u0d4d": 4957,
  "\u2581\u0d15\u0d41\u0d31\u0d4d\u0d31\u0d02": 4958,
  "\u2581\u0d27\u0d48\u0d30\u0d4d\u0d2f": 4959,
  "\u2581\u0d2a\u0d3e\u0d30": 4960,
  "light": 4961,
  "\u0d2f\u0d41\u0d23\u0d4d\u0d1f": 4962,
  "\u2581examples": 4963,
  "\u2581\u0d2e\u0d4b\u0d36": 4964,
  "\u0d2f\u0d47\u0d7d": 4965,
  "\u0d39\u0d46": 4966,
  "\u2581lack": 4967,
  "\u2581\u0d15\u0d30\u0d41\u0d23\u0d3e\u0d28\u0d3f\u0d27\u0d3f\u0d2f\u0d41\u0d2e": 4968,
  "\u2581\u0d26\u0d42\u0d30": 4969,
  "\u2581\u0d2e\u0d31\u0d4d\u0d31\u0d4d": 4970,
  "phi": 4971,
  "und": 4972,
  "\u2581\u0d28\u0d3e\u0d1f\u0d4d\u0d1f\u0d3f\u0d7d": 4973,
  "\u2581\u0d35\u0d39\u0d3f\u0d15\u0d4d\u0d15": 4974,
  "OR": 4975,
  "\u2581curse": 4976,
  "\u2581\u0d15\u0d30\u0d3e\u0d7c": 4977,
  "\u2581\u0d2a\u0d31\u0d4d\u0d31": 4978,
  "uff": 4979,
  "\u0d35\u0d7e": 4980,
  "\u2581Ar": 4981,
  "\u2581NW": 4982,
  "\u2581punish": 4983,
  "\u2581\u0d1a\u0d41\u0d31\u0d4d\u0d31\u0d41\u0d02": 4984,
  "from": 4985,
  "ros": 4986,
  "\u0d15\u0d4d\u0d15\u0d3e\u0d30\u0d41\u0d1f\u0d46": 4987,
  "\u0d3f\u0d15\u0d33\u0d41\u0d1f\u0d46": 4988,
  "\u2581\u0d35\u0d3f\u0d36\u0d4d\u0d35\u0d38\u0d3f\u0d1a\u0d4d\u0d1a\u0d35\u0d30\u0d47": 4989,
  "\u2581\u0d1a\u0d30": 4990,
  "\u2581\u0d2e\u0d31\u0d3f\u0d1a\u0d4d\u0d1a\u0d4d": 4991,
  "\u2581social": 4992,
  "\u2581\u0d15\u0d41\u0d34\u0d2a\u0d4d\u0d2a": 4993,
  "ng": 4994,
  "\u0d17\u0d43\u0d39": 4995,
  "\u0d2f\u0d4b\u0d1f\u0d41\u0d02": 4996,
  "\u2581Joshua": 4997,
  "\u2581Line": 4998,
  "\u2581\u0d32\u0d4b\u0d15\u0d02": 4999,
  "\u2581\u0d35\u0d1a\u0d28\u0d19\u0d4d\u0d19\u0d33\u0d46": 5000,
  "\u2581\u0d26\u0d3e\u0d38\u0d7b\u0d2e\u0d3e\u0d30": 5001,
  "\u2581\u0d2d\u0d42\u0d2e\u0d3f\u0d2f\u0d3f\u0d32\u0d46": 5002,
  "ler": 5003,
  "soever": 5004,
  "\u2581\u0d24\u0d4d\u0d24\u0d3f\u0d28\u0d4d": 5005,
  "\u0d3e\u0d35\u0d38\u0d4d\u0d25": 5006,
  "\u2581\u0d2e\u0d28\u0d41\u0d37\u0d4d\u0d2f\u0d28": 5007,
  "\u2581Nor": 5008,
  "\u2581ahead": 5009,
  "\u0d24\u0d28\u0d4d\u0d28\u0d46\u0d2f\u0d3e\u0d23\u0d4d": 5010,
  "\u0d2e\u0d41\u0d23\u0d4d\u0d1f\u0d4b": 5011,
  "\u2581ca": 5012,
  "\u2581magazine": 5013,
  "ina": 5014,
  "\u0d2e\u0d4d\u0d2e\u0d3e": 5015,
  "\u0d41\u0d33\u0d33": 5016,
  "\u2581Wa": 5017,
  "\u2581\u0d2f\u0d39\u0d4b\u0d35\u0d2f\u0d4b\u0d1f\u0d41": 5018,
  "\u2581\u0d31\u0d37\u0d4d\u0d2f": 5019,
  "\u2581\u0d36\u0d2c\u0d4d\u0d26": 5020,
  "\u0d46\u0d28\u0d4d\u0d28\u0d46": 5021,
  "\u25811914": 5022,
  "\u2581charge": 5023,
  "\u2581\u0d24\u0d47\u0d1f": 5024,
  "\u0d2a\u0d3e\u0d24": 5025,
  "\u2581apart": 5026,
  "\u2581mention": 5027,
  "\u2581\u0d2a\u0d1a\u0d4d\u0d1a": 5028,
  "ise": 5029,
  "\u2581\u0d05\u0d2e": 5030,
  "\u2581\u0d15\u0d4a\u0d23\u0d4d\u0d1f\u0d41\u0d35\u0d28\u0d4d\u0d28\u0d41": 5031,
  "\u2581\u0d05\u0d35\u0d28\u0d3f\u0d1a\u0d4d\u0d1b\u0d3f\u0d15\u0d4d\u0d15\u0d41\u0d28\u0d4d\u0d28": 5032,
  "\u2581\u0d06\u0d2f\u0d3f\u0d30\u0d3f\u0d15\u0d4d\u0d15\u0d41\u0d02": 5033,
  "\u2581\u0d1a\u0d3f\u0d28\u0d4d\u0d24\u0d3f\u0d15\u0d4d\u0d15\u0d41\u0d28\u0d4d\u0d28": 5034,
  "but": 5035,
  "\u2581proved": 5036,
  "\u2581\u0d06\u0d39\u0d3e\u0d30\u0d02": 5037,
  "\u2581\u0d1a\u0d47\u0d7c\u0d28\u0d4d\u0d28\u0d41": 5038,
  "\u2581\u0d2a\u0d31\u0d2f\u0d42": 5039,
  "ug": 5040,
  "\u2581Sir": 5041,
  "\u2581wilderness": 5042,
  "\u2581\u0d06\u0d36\u0d4d\u0d30\u0d2f\u0d3f\u0d15\u0d4d\u0d15": 5043,
  "\u2581\u0d38\u0d38\u0d4d\u0d2f": 5044,
  "\u0d09\u0d2f\u0d3f\u0d7c\u0d24\u0d4d\u0d24\u0d46\u0d34\u0d41\u0d28\u0d4d\u0d28\u0d47\u0d7d\u0d2a": 5045,
  "\u2581star": 5046,
  "\u2581\u0d06\u0d39\u0d3e\u0d30": 5047,
  "\u2581\u0d2a\u0d3f\u0d1f\u0d3f\u0d15\u0d42\u0d1f\u0d3f": 5048,
  "\u2581\u0d2b\u0d4d\u0d30\u0d3e\u0d7b\u0d38": 5049,
  "\u2581\u0d30\u0d3e\u0d1c\u0d3e\u0d35\u0d4d": 5050,
  "\u2581\u0d36\u0d15\u0d4d\u0d24\u0d2e\u0d3e\u0d2f": 5051,
  "\u0d3e\u0d31": 5052,
  "\u2581explained": 5053,
  "\u2581opportunity": 5054,
  "\u2581\u0d07\u0d35\u0d7b": 5055,
  "\u2581\u0d2a\u0d33\u0d4d\u0d33\u0d3f": 5056,
  "\u2581security": 5057,
  "\u2581\u0d05\u0d31\u0d4d\u0d31": 5058,
  "\u2581\u0d09\u0d2a\u0d47\u0d15\u0d4d\u0d37\u0d3f\u0d15\u0d4d\u0d15": 5059,
  "\u2581\u0d1e\u0d3e\u0d28\u0d4a\u0d30\u0d41": 5060,
  "tern": 5061,
  "\u0d31\u0d3f\u0d1e\u0d4d\u0d1e\u0d41": 5062,
  "\u2581Mark": 5063,
  "\u0d05\u0d35\u0d7b": 5064,
  "\u0d1b": 5065,
  "\u2581sexual": 5066,
  "\u2581\u0d06\u0d36\u0d2f": 5067,
  "\u2581\u0d07\u0d32": 5068,
  "\u0d15\u0d4d\u0d37\u0d23": 5069,
  "\u2581Brother": 5070,
  "\u2581precious": 5071,
  "\u2581prevent": 5072,
  "\u2581\u0d24\u0d19\u0d4d\u0d19\u0d7e\u0d15\u0d4d\u0d15": 5073,
  "\u0d2f\u0d40": 5074,
  "\u2581helps": 5075,
  "\u2581victory": 5076,
  "\u2581\u0d30\u0d3e\u0d1c\u0d4d\u0d2f\u0d02": 5077,
  "\u2581creatures": 5078,
  "\u2581\u0d15\u0d3f\u0d1f\u0d4d\u0d1f\u0d3f": 5079,
  "\u2581\u0d38\u0d42\u0d15\u0d4d\u0d37\u0d3f\u0d15\u0d4d\u0d15\u0d41\u0d15": 5080,
  "\u2581male": 5081,
  "\u2581secure": 5082,
  "\u2581\u0d2c\u0d4b\u0d27\u0d4d\u0d2f": 5083,
  "\u0d1f\u0d4d\u0d1f\u0d3e": 5084,
  "\u0d24\u0d3f\u0d28\u0d4d\u0d28\u0d41": 5085,
  "\u2581quickly": 5086,
  "ograph": 5087,
  "\u2581humble": 5088,
  "\u2581tomorrow": 5089,
  "\u2581\u0d0e\u0d28\u0d4d\u0d28\u0d3f\u0d19\u0d4d\u0d19\u0d28\u0d46": 5090,
  "\u2581\u0d1a\u0d46\u0d2f\u0d4d\u0d2f\u0d2a\u0d4d\u0d2a\u0d46\u0d1f\u0d4d\u0d1f": 5091,
  "When": 5092,
  "\u0d3f\u0d2a\u0d4d\u0d2a\u0d4b\u0d2f": 5093,
  "\u2581hate": 5094,
  "\u2581join": 5095,
  "\u2581students": 5096,
  "\u2581\u0d15\u0d3e\u0d23\u0d3f": 5097,
  "\u2581\u0d1a\u0d4a\u0d32\u0d4d\u0d32": 5098,
  "\u0d38\u0d4d\u0d25\u0d32": 5099,
  "\u2581remove": 5100,
  "\u2581\u0d05\u0d35\u0d7e\u0d15\u0d4d\u0d15\u0d4d": 5101,
  "\u2581actually": 5102,
  "\u2581heavy": 5103,
  "\u2581strengthen": 5104,
  "\u0d05\u0d24\u0d4d": 5105,
  "\u0d33\u0d4d\u0d33\u0d42": 5106,
  "\u2581Se": 5107,
  "\u2581feed": 5108,
  "\u2581\u0d15\u0d23\u0d4d\u0d1f\u0d46\u0d24\u0d4d\u0d24\u0d3f": 5109,
  "\u2581\u0d2a\u0d3f\u0d28\u0d4d\u0d24\u0d41\u0d23": 5110,
  "\u0d2a\u0d3e\u0d26": 5111,
  "\u25819:": 5112,
  "\u2581OF": 5113,
  "\u2581instance": 5114,
  "\u2581\u0d15\u0d46\u0d1f\u0d4d\u0d1f\u0d3f\u0d1a\u0d4d\u0d1a\u0d2e\u0d1a\u0d4d\u0d1a": 5115,
  "\u2581\u0d26\u0d41\u0d30": 5116,
  "\u2581\u0d2a\u0d4d\u0d30\u0d3e\u0d7c\u0d24\u0d4d\u0d25\u0d28": 5117,
  "\u0d3e\u0d15\u0d41\u0d02": 5118,
  "\u2581recorded": 5119,
  "\u0d7c\u0d28\u0d4d\u0d28\u0d41": 5120,
  "\u2581committed": 5121,
  "\u2581imitate": 5122,
  "\u2581universe": 5123,
  "\u2581\u0d05\u0d23": 5124,
  "\u2581\u0d2c\u0d39\u0d41": 5125,
  "\u0d3f\u0d24\u0d4d": 5126,
  "\u258190": 5127,
  "\u2581condition": 5128,
  "\u2581confidence": 5129,
  "\u2581\u0d15\u0d3e\u0d32\u0d3f": 5130,
  "\u2581\u0d27\u0d3e": 5131,
  "\u2581\u0d28\u0d47\u0d1f\u0d4d\u0d1f": 5132,
  "\u2581\u0d35\u0d3f\u0d27": 5133,
  "\u2581wall": 5134,
  "\u2581\u0d30\u0d3e\u0d24\u0d4d\u0d30\u0d3f\u0d2f\u0d3f\u0d7d": 5135,
  "ations": 5136,
  "\u2581\u0d06\u0d30\u0d02\u0d2d\u0d3f\u0d1a\u0d4d\u0d1a\u0d41": 5137,
  "\u2581\u0d35\u0d3e\u0d15\u0d4d\u0d15": 5138,
  "\u0d39\u0d40": 5139,
  "\u2581Was": 5140,
  "\u2581\u0d2a\u0d15\u0d4d\u0d37\u0d3f": 5141,
  "\u2581\u0d2f\u0d3f\u0d38\u0d4d\u0d30\u0d3e\u0d2f\u0d47\u0d32\u0d3f\u0d28\u0d4d\u0d31\u0d46": 5142,
  "\u0d2a\u0d24\u0d4d\u0d30": 5143,
  "\u2581\u0d2a\u0d41\u0d24\u0d4d\u0d30\u0d28\u0d4d\u0d2e\u0d3e\u0d7c": 5144,
  "\u2581\u0d35\u0d3e\u0d19\u0d4d\u0d19\u0d3f": 5145,
  "cut": 5146,
  "ics": 5147,
  "\u0d30\u0d41\u0d33": 5148,
  "\u0d3f\u0d2a\u0d4d\u0d2a\u0d3f\u0d15\u0d4d\u0d15\u0d41\u0d28\u0d4d\u0d28": 5149,
  "\u2581Wait": 5150,
  "\u2581\u0d28\u0d3f\u0d19\u0d4d\u0d19\u0d7e\u0d15\u0d4d\u0d15\u0d41\u0d02": 5151,
  "\u2581\u0d28\u0d4d\u0d2f\u0d3e\u0d2f\u0d2a\u0d4d\u0d30\u0d2e\u0d3e\u0d23": 5152,
  "time": 5153,
  "\u2581Has": 5154,
  "\u2581\u0d15\u0d33\u0d3f\u0d15\u0d4d\u0d15": 5155,
  "\u2581\u0d17\u0d41\u0d39": 5156,
  "\u2581\u0d30\u0d4d\u0d2f": 5157,
  "ham": 5158,
  "\u0d41\u0d28\u0d4d\u0d28\u0d35\u0d30\u0d41\u0d02": 5159,
  "\u2581\u0d2e\u0d41\u0d28\u0d4d\u0d28\u0d3f\u0d7d": 5160,
  "\u0d26\u0d7c\u0d36": 5161,
  "\u2581count": 5162,
  "\u2581\u0d2f\u0d3e\u0d15\u0d4d\u0d15\u0d4b\u0d2c\u0d4d": 5163,
  "\u2581\u0d35\u0d3f\u0d36": 5164,
  "\u2581\u0d35\u0d40\u0d15\u0d4d\u0d37\u0d3f\u0d15\u0d4d\u0d15": 5165,
  "\u2581True": 5166,
  "\u2581lord": 5167,
  "\u2581\u0d15\u0d7c\u0d24\u0d4d\u0d24\u0d3e\u0d35\u0d41": 5168,
  "\u2581\u0d35\u0d28\u0d4d\u0d28\u0d46\u0d24\u0d4d\u0d24\u0d3f\u0d2f": 5169,
  "cha": 5170,
  "\u0d2a\u0d31": 5171,
  "\u2581Fe": 5172,
  "\u2581\u0d15\u0d32\u0d4d\u0d2a\u0d3f\u0d1a\u0d4d\u0d1a\u0d41": 5173,
  "\u2581reveal": 5174,
  "\u2581\u0d2a\u0d4d\u0d30\u0d35\u0d47\u0d36\u0d3f\u0d15\u0d4d\u0d15": 5175,
  "\u2581\u0d2f\u0d39\u0d4b\u0d35\u0d47": 5176,
  "\u2581\u0d38\u0d2e\u0d4d\u0d2e\u0d3e\u0d28": 5177,
  "lar": 5178,
  "ris": 5179,
  "\u0d3f\u0d30\u0d3f\u0d15\u0d4d\u0d15\u0d41\u0d28\u0d4d\u0d28\u0d24\u0d41": 5180,
  "\u2581En": 5181,
  "\u2581crowd": 5182,
  "\u0d41\u0d35\u0d3e\u0d28": 5183,
  "\u2581ability": 5184,
  "\u2581rock": 5185,
  "\u2581\u0d05\u0d24\u0d41\u0d02": 5186,
  "\u2581\u0d26\u0d3e\u0d35\u0d40\u0d26\u0d3f\u0d28\u0d4d\u0d31\u0d46": 5187,
  "\u25811997": 5188,
  "\u2581appear": 5189,
  "\u2581causes": 5190,
  "\u2581\u0d0e\u0d28\u0d3f\u0d15\u0d4d\u0d15\u0d31\u0d3f\u0d2f\u0d3f\u0d32\u0d4d\u0d32": 5191,
  ");": 5192,
  "lam": 5193,
  "\u0d15\u0d4d\u0d15\u0d4a\u0d23\u0d4d\u0d1f": 5194,
  "\u2581calls": 5195,
  "\u2581teacher": 5196,
  "\u2581Je": 5197,
  "\u2581\u0d2a\u0d4d\u0d30\u0d16\u0d4d\u0d2f\u0d3e\u0d2a\u0d3f\u0d1a\u0d4d\u0d1a": 5198,
  "\u2581\u0d35\u0d33\u0d30": 5199,
  "tle": 5200,
  "\u0d23\u0d47": 5201,
  "\u2581Pen": 5202,
  "\u2581aside": 5203,
  "\u2581\u0d2e\u0d42\u0d32\u0d02": 5204,
  "\u0d36\u0d40": 5205,
  "\u0d7e\u0d21\u0d4d": 5206,
  "\u2581Help": 5207,
  "\u2581\u0d28\u0d40\u0d1f\u0d4d\u0d1f\u0d3f": 5208,
  "\u2581\u0d2a\u0d4d\u0d30\u0d3e\u0d23": 5209,
  "\u0d2f\u0d3e\u0d2f\u0d3f\u0d30\u0d3f\u0d15\u0d4d\u0d15\u0d41\u0d02": 5210,
  "\u0d35\u0d3f\u0d26\u0d4d\u0d2f": 5211,
  "\u258117:": 5212,
  "\u2581Per": 5213,
  "\u2581\u0d15\u0d41\u0d1e\u0d4d\u0d1e": 5214,
  "\u2581\u0d30\u0d3e\u0d1c\u0d3e\u0d35": 5215,
  "\u0d35\u0d2f": 5216,
  "\u0d35\u0d30\u0d3f\u0d15": 5217,
  "\u0d46\u0d28\u0d4d\u0d28\u0d4b": 5218,
  "\u2581Show": 5219,
  "\u2581level": 5220,
  "\u2581\u0d28\u0d7b\u0d2e": 5221,
  "\u2581\u0d35\u0d3e\u0d19\u0d4d\u0d19\u0d3f\u0d2f": 5222,
  "\u0d24\u0d4a\u0d28\u0d4d\u0d28\u0d41\u0d02": 5223,
  "\u2581pages": 5224,
  "\u2581\u0d2e\u0d42\u0d28\u0d4d\u0d28": 5225,
  "\u2581\u0d35\u0d41": 5226,
  "\u2581\u0d38\u0d02\u0d38\u0d3e\u0d30\u0d3f\u0d1a\u0d4d\u0d1a": 5227,
  "\u2581action": 5228,
  "\u2581\u0d05\u0d39": 5229,
  "\u2581\u0d24\u0d24\u0d4d\u0d24\u0d4d\u0d35": 5230,
  "\u2581\u0d2e\u0d27\u0d4d\u0d2f": 5231,
  "\u2581ruin": 5232,
  "\u2581sad": 5233,
  "\u2581\u0d09\u0d2a\u0d2f\u0d4b\u0d17": 5234,
  "\u2581\u0d15\u0d4b\u0d1f\u0d24\u0d3f": 5235,
  "\u0d24\u0d41\u0d15\u0d4a\u0d23\u0d4d\u0d1f\u0d4d": 5236,
  "\u2581Dis": 5237,
  "\u2581remained": 5238,
  "gress": 5239,
  "\u0d1a\u0d4d\u0d1a\u0d3e\u0d7d": 5240,
  "\u0d41\u0d28\u0d4d\u0d28\u0d24\u0d3f\u0d28\u0d41\u0d33\u0d4d\u0d33": 5241,
  "\u2581Ju": 5242,
  "\u2581produced": 5243,
  "\u2581\u0d12\u0d30\u0d3e\u0d33\u0d46": 5244,
  "\u2581\u0d38\u0d7d": 5245,
  "\u2581partners": 5246,
  "\u2581\u0d09\u0d23\u0d4d\u0d1f\u0d3e\u0d2f\u0d3f": 5247,
  "\u2581\u0d2a\u0d42\u0d7c\u0d24\u0d4d\u0d24\u0d3f\u0d2f\u0d3e\u0d15\u0d4d\u0d15": 5248,
  "\u2581\u0d2e\u0d31\u0d4d\u0d31\u0d41\u0d33\u0d4d\u0d33": 5249,
  "\u2581\u0d12\u0d15\u0d4d\u0d15\u0d46": 5250,
  "\u2581\u0d2a\u0d40": 5251,
  "\u2581\u0d38\u0d3e\u0d15\u0d4d\u0d37\u0d3f\u0d15\u0d33": 5252,
  "\u0d15\u0d4a\u0d1f\u0d41\u0d24\u0d4d\u0d24": 5253,
  "\u2581asking": 5254,
  "\u2581\u0d2a\u0d4d\u0d30\u0d15\u0d43\u0d24\u0d3f": 5255,
  "bit": 5256,
  "\u0d2e\u0d31\u0d4d\u0d31": 5257,
  "\u2581chapter": 5258,
  "\u2581loves": 5259,
  "\u2581south": 5260,
  "\u2581tribe": 5261,
  "\u2581\u0d2e\u0d3e\u0d38\u0d3f\u0d15": 5262,
  "\u0d2a\u0d4d\u0d2a\u0d46\u0d1f\u0d41\u0d24\u0d4d\u0d24\u0d3f": 5263,
  "\u0d2c\u0d31": 5264,
  "\u2581excellent": 5265,
  "\u2581\u0d2a\u0d7c\u0d35\u0d24": 5266,
  "bi": 5267,
  "\u0d2f\u0d31": 5268,
  "\u2581approach": 5269,
  "\u2581changes": 5270,
  "\u2581events": 5271,
  "\u2581\u0d06\u0d30\u0d3e": 5272,
  "\u2581\u0d2a\u0d30\u0d40\u0d15\u0d4d\u0d37\u0d3f\u0d15\u0d4d\u0d15": 5273,
  "\u0d43\u0d37\u0d4d\u0d1f": 5274,
  "\u2581baby": 5275,
  "\u2581\u0d38\u0d2e\u0d3e": 5276,
  "\u0d15\u0d4d\u0d15\u0d33\u0d46": 5277,
  "\u2581ship": 5278,
  "\u2581walking": 5279,
  "\u2581\u0d24\u0d28\u0d4d\u0d28\u0d46\u0d2f\u0d3e\u0d23": 5280,
  "\u0d7c\u0d1c\u0d3f": 5281,
  "\u2581running": 5282,
  "\u2581weak": 5283,
  "\u2581\u0d1c\u0d28\u0d4d\u0d2e": 5284,
  "\u2581\u0d28\u0d4b\u0d15\u0d4d\u0d15\u0d3e\u0d02": 5285,
  "\u0d3f\u0d24\u0d4d\u0d24\u0d28\u0d4d\u0d28": 5286,
  "\u2581sought": 5287,
  "\u2581stated": 5288,
  "\u2581\u0d05\u0d7c\u0d25": 5289,
  "ger": 5290,
  "\u2581\u0d12\u0d28\u0d4d\u0d28\u0d41\u0d2e\u0d3f\u0d32\u0d4d\u0d32": 5291,
  "\u2581\u0d09\u0d31\u0d2a\u0d4d\u0d2a\u0d41": 5292,
  "\u2581\u0d0e\u0d34\u0d41\u0d28\u0d4d\u0d28\u0d47\u0d31\u0d4d\u0d31\u0d41": 5293,
  "\u2581\u0d19\u0d4d\u0d19\u0d7e": 5294,
  "\u2581\u0d2a\u0d4b\u0d15\u0d3e\u0d02": 5295,
  "\u2581\u0d2e\u0d42\u0d38": 5296,
  "\u0d36\u0d47\u0d37": 5297,
  "\u2581Pre": 5298,
  "\u2581activities": 5299,
  "\u2581turns": 5300,
  "\u0d3e\u0d23\u0d46\u0d28\u0d4d\u0d28": 5301,
  "\u0d46\u0d28\u0d4d\u0d24\u0d3e\u0d23\u0d4d": 5302,
  "\u2581described": 5303,
  "\u2581riches": 5304,
  "\u2581witnesses": 5305,
  "\u2581\u0d15\u0d34\u0d3f\u0d1a\u0d4d\u0d1a\u0d41": 5306,
  "\u2581\u0d2a\u0d4d\u0d30\u0d36\u0d4d\u0d28": 5307,
  "ology": 5308,
  "\u2581Che": 5309,
  "\u2581More": 5310,
  "\u0d2e\u0d3e\u0d2f\u0d3f\u0d30\u0d3f\u0d15\u0d4d\u0d15": 5311,
  "\u2581pioneer": 5312,
  "\u2581\u0d05\u0d32\u0d4d\u0d32\u0d46": 5313,
  "\u2581\u0d24\u0d41\u0d32\u0d4d\u0d2f": 5314,
  "\u2581\u0d2d\u0d42\u0d24": 5315,
  "\u2581\u0d36\u0d3e": 5316,
  "\u0d17\u0d24\u0d3f": 5317,
  "\u0d28\u0d4d\u0d2e\u0d3e\u0d30\u0d3e\u0d2f": 5318,
  "\u2581San": 5319,
  "\u2581wide": 5320,
  "\u2581\u0d2a\u0d23\u0d3f\u0d2f": 5321,
  "ning": 5322,
  "rah": 5323,
  "\u2581\u0d15\u0d3f\u0d34\u0d15\u0d4d\u0d15": 5324,
  "\u2581\u0d28\u0d7d\u0d15\u0d41\u0d02": 5325,
  "\u2581\u0d35\u0d3f\u0d36\u0d26\u0d40\u0d15\u0d30\u0d3f\u0d15\u0d4d\u0d15": 5326,
  "\u0d3f\u0d7d\u0d28\u0d3f\u0d28\u0d4d\u0d28\u0d41\u0d02": 5327,
  "\u2581Hebrew": 5328,
  "\u2581ho": 5329,
  "\u2581key": 5330,
  "\u2581\u0d05\u0d7c\u0d2a\u0d4d\u0d2a\u0d3f\u0d15\u0d4d\u0d15": 5331,
  "\u2581\u0d09\u0d28\u0d4d\u0d28\u0d24": 5332,
  "\u2581\u0d26\u0d4d\u0d30": 5333,
  "\u2581\u0d2a\u0d1f\u0d3f\u0d1e\u0d4d\u0d1e\u0d3e\u0d31": 5334,
  "\u2581\u0d36\u0d40\u0d32": 5335,
  "\u2581\u0d38\u0d4d\u0d30\u0d37\u0d4d\u0d1f\u0d3e\u0d35": 5336,
  "other": 5337,
  "\u2581\u0d1a\u0d41\u0d1f\u0d4d\u0d1f": 5338,
  "\u2581\u0d27\u0d28\u0d02": 5339,
  "ay": 5340,
  "\u0d3e\u0d2f\u0d3f\u0d30\u0d3f\u0d15\u0d4d\u0d15\u0d23\u0d02": 5341,
  "\u2581\u0d0e\u0d24\u0d3f\u0d30": 5342,
  "\u2581\u0d38\u0d42\u0d30\u0d4d\u0d2f": 5343,
  "\u0d38\u0d4d\u0d1f\u0d4d\u0d30": 5344,
  "\u0d4b\u0d1f\u0d41\u0d33\u0d4d\u0d33": 5345,
  "\u2581Earth": 5346,
  "\u2581affect": 5347,
  "\u2581final": 5348,
  "\u2581sacred": 5349,
  "\u2581\u0d05\u0d31\u0d3f\u0d35\u0d4d": 5350,
  "\u0d16\u0d23\u0d4d\u0d21": 5351,
  "\u0d1c\u0d7b": 5352,
  "\u2581modern": 5353,
  "\u2581\u0d07\u0d24\u0d4a\u0d30\u0d41": 5354,
  "\u2581\u0d15\u0d4a\u0d30\u0d3f\u0d28\u0d4d\u0d24\u0d4d\u0d2f\u0d7c": 5355,
  "\u2581\u0d17\u0d41\u0d30\u0d41": 5356,
  "\u2581\u0d19\u0d4d\u0d15\u0d3f\u0d7d": 5357,
  "len": 5358,
  "\u2581formed": 5359,
  "\u2581\u0d35\u0d3f\u0d1a\u0d3e\u0d30": 5360,
  "\u2581\u0d35\u0d46\u0d1f\u0d4d\u0d1f\u0d3f": 5361,
  "No": 5362,
  "\u0d1f\u0d41\u0d24\u0d4d\u0d24\u0d41": 5363,
  "\u0d2a\u0d4d\u0d2a\u0d46": 5364,
  "\u2581\u0d15\u0d33": 5365,
  "\u2581\u0d24\u0d41\u0d31\u0d28\u0d4d\u0d28": 5366,
  "\u2581\u0d2d\u0d3e\u0d30\u0d02": 5367,
  "od": 5368,
  "\u2581\u0d26\u0d42\u0d24\u0d7b": 5369,
  "\u2581\u0d38\u0d28\u0d4d\u0d24\u0d4b\u0d37\u0d35\u0d3e\u0d7c\u0d24\u0d4d\u0d24": 5370,
  "\u0d15\u0d4d\u0d15\u0d3f\u0d2f\u0d3f\u0d30\u0d3f\u0d15\u0d4d\u0d15\u0d41\u0d28\u0d4d\u0d28\u0d41": 5371,
  "\u0d24\u0d2f\u0d41\u0d02": 5372,
  "\u0d2e\u0d3f\u0d28\u0d4d\u0d31\u0d46": 5373,
  "\u2581Over": 5374,
  "\u2581\u0d05\u0d28\u0d3e\u0d25": 5375,
  "\u2581\u0d05\u0d2c\u0d4d": 5376,
  "\u2581\u0d2a\u0d15\u0d4d\u0d37": 5377,
  "\u2581\u0d30\u0d41\u0d02": 5378,
  "\u0d1f\u0d3f\u0d1e\u0d4d\u0d1e": 5379,
  "\u0d1f\u0d3f\u0d2f": 5380,
  "\u258165": 5381,
  "\u2581Name": 5382,
  "\u2581trial": 5383,
  "\u0d15\u0d48": 5384,
  "\u2581type": 5385,
  "\u2581\u0d06\u0d35\u0d36\u0d4d\u0d2f\u0d02": 5386,
  "\u2581\u0d1a\u0d3f\u0d15\u0d3f\u0d24\u0d4d\u0d38": 5387,
  "\u2581\u0d2c\u0d4d\u0d30\u0d3e": 5388,
  "\u2581\u0d38\u0d3e\u0d2e\u0d4d\u0d2a\u0d24\u0d4d\u0d24\u0d3f\u0d15": 5389,
  "old": 5390,
  "\u2581\u0d05\u0d31\u0d3f\u0d2f\u0d41\u0d28\u0d4d\u0d28\u0d35\u0d28\u0d41\u0d02": 5391,
  "\u2581\u0d15\u0d3e\u0d32\u0d18\u0d1f\u0d4d\u0d1f": 5392,
  "\u2581\u0d2f\u0d39\u0d4b\u0d35\u0d2f\u0d3e\u0d2f": 5393,
  "\u0d35\u0d3e\u0d30": 5394,
  "\u0d3e\u0d7c\u0d25": 5395,
  "\u2581Moreover": 5396,
  "\u2581protection": 5397,
  "\u2581\u0d1a\u0d46\u0d2f\u0d4d\u0d2f\u0d41\u0d28\u0d4d\u0d28\u0d24\u0d3e\u0d23\u0d4d": 5398,
  "\u2581\u0d2a\u0d46\u0d1f": 5399,
  "\u2581Scriptural": 5400,
  "\u2581laws": 5401,
  "\u2581loyal": 5402,
  "\u2581\u0d37\u0d3f": 5403,
  "ound": 5404,
  "\u2581Love": 5405,
  "\u2581perform": 5406,
  "\u2581phone": 5407,
  "\u2581\u0d2a\u0d3e\u0d1f\u0d3f\u0d32\u0d4d\u0d32": 5408,
  "\u0d15\u0d4d\u0d30\u0d4b": 5409,
  "\u2581realize": 5410,
  "\u2581\u0d2a\u0d4d\u0d30\u0d2f\u0d4b\u0d1c\u0d28\u0d02": 5411,
  "\u2581\u0d35\u0d3f\u0d35\u0d30\u0d02": 5412,
  "\u2581\u0d35\u0d4d\u0d2f\u0d15\u0d4d\u0d24\u0d2e\u0d3e\u0d2f\u0d3f": 5413,
  "cent": 5414,
  "\u0d15\u0d33\u0d3e\u0d2f\u0d3f": 5415,
  "\u0d3f\u0d15\u0d4d\u0d15\u0d4a\u0d1f\u0d41\u0d15\u0d4d\u0d15": 5416,
  "\u2581\u0d0e\u0d28\u0d4d\u0d24\u0d4b": 5417,
  "\u0d35\u0d15": 5418,
  "\u2581lands": 5419,
  "\u0d15\u0d4d\u0d15\u0d41\u0d31\u0d3f\u0d1a\u0d4d\u0d1a\u0d4d": 5420,
  "\u2581Way": 5421,
  "\u2581wherein": 5422,
  "\u2581\u0d2e\u0d28\u0d38\u0d4d\u0d38\u0d3f": 5423,
  "\u0d2f\u0d3e\u0d15\u0d4d\u0d15\u0d3f": 5424,
  "\u2581Bethel": 5425,
  "\u2581region": 5426,
  "\u0d2f\u0d4a\u0d28\u0d4d\u0d28\u0d41\u0d02": 5427,
  "\u2581Mother": 5428,
  "\u2581explain": 5429,
  "\u2581\u0d38\u0d42\u0d15\u0d4d\u0d37\u0d4d\u0d2e\u0d2e\u0d3e\u0d2f\u0d3f": 5430,
  "air": 5431,
  "\u0d38\u0d39\u0d4b\u0d26\u0d30": 5432,
  "\u0d3f\u0d28\u0d4d\u0d2e\u0d47\u0d7d": 5433,
  "\u2581border": 5434,
  "\u2581doctor": 5435,
  "\u2581regular": 5436,
  "\u2581\u0d1c\u0d4d\u0d1e\u0d3e\u0d28\u0d02": 5437,
  "\u2581Tra": 5438,
  "\u2581choice": 5439,
  "\u2581\u0d28\u0d4d\u0d28\u0d46": 5440,
  "\u0d24\u0d4a\u0d15\u0d4d\u0d15\u0d46": 5441,
  "\u0d39\u0d43\u0d26\u0d2f": 5442,
  "\u2581\u0d2a\u0d30\u0d2e": 5443,
  "\u2581\u0d35\u0d32\u0d4d\u0d32\u0d24\u0d41\u0d02": 5444,
  "\u0d31\u0d2a\u0d4d\u0d2a": 5445,
  "\u2581generations": 5446,
  "\u2581\u0d09\u0d02": 5447,
  "\u2581\u0d15\u0d3f\u0d32\u0d4b\u0d2e\u0d40\u0d31\u0d4d\u0d31\u0d7c": 5448,
  "oth": 5449,
  "\u0d47\u0d34\u0d4d\u0d38\u0d4d": 5450,
  "\u2581\u0d28\u0d37\u0d4d\u0d1f\u0d2a\u0d4d\u0d2a\u0d46\u0d1f\u0d4d\u0d1f": 5451,
  "ik": 5452,
  "\u2581moral": 5453,
  "\u2581prophecy": 5454,
  "\u2581\u0d05\u0d35\u0d3f\u0d1f": 5455,
  "\u2581\u0d0e\u0d7d": 5456,
  "\u2581\u0d2e\u0d3e\u0d24\u0d3e\u0d35": 5457,
  "\u0d24\u0d4d\u0d24\u0d30\u0d02": 5458,
  "\u2581decisions": 5459,
  "\u2581request": 5460,
  "\u0d28\u0d3f\u0d15\u0d4d\u0d15": 5461,
  "\u2581community": 5462,
  "\u2581\u0d38\u0d02\u0d36\u0d2f": 5463,
  "\u2581\u0d38\u0d2e\u0d4d\u0d2a\u0d3e\u0d26\u0d3f\u0d1a\u0d4d\u0d1a": 5464,
  "\u0d28\u0d3e\u0d33": 5465,
  "\u2581actions": 5466,
  "\u2581although": 5467,
  "\u2581\u0d0e\u0d28\u0d4d\u0d28\u0d47\u0d15\u0d4d\u0d15\u0d41\u0d02": 5468,
  "\u2581\u0d2e\u0d26\u0d4d\u0d2f": 5469,
  "them": 5470,
  "\u0d15\u0d33\u0d3f\u0d32\u0d46": 5471,
  "\u0d28\u0d32\u0d4d\u0d32": 5472,
  "\u2581Box": 5473,
  "\u2581training": 5474,
  "\u2581\u0d24\u0d40\u0d30\u0d41\u0d2e\u0d3e\u0d28\u0d3f\u0d15\u0d4d\u0d15": 5475,
  "\u2581\u0d35\u0d33\u0d7c\u0d24\u0d4d\u0d24": 5476,
  "\u2581burn": 5477,
  "\u2581\u0d06\u0d36\u0d4d\u0d30\u0d2f": 5478,
  "\u2581\u0d24\u0d30\u0d02": 5479,
  "\u0d38\u0d3f\u0d32\u0d46": 5480,
  "\u2581brethren": 5481,
  "\u2581congregations": 5482,
  "\u2581stones": 5483,
  "\u2581worry": 5484,
  "\u0d2e\u0d4d\u0d2a\u0d3e": 5485,
  "\u2581\u0d2a\u0d3f\u0d28\u0d4d\u0d24\u0d41\u0d1f\u0d30": 5486,
  "struct": 5487,
  "\u0d4b\u0d1f\u0d4d\u0d1f\u0d4d": 5488,
  "\u2581Whoever": 5489,
  "\u2581\u0d05\u0d24\u0d3e": 5490,
  "\u2581\u0d2e\u0d41\u0d28\u0d4d\u0d28\u0d31\u0d3f\u0d2f\u0d3f\u0d2a\u0d4d\u0d2a\u0d41": 5491,
  "\u0d28\u0d3f\u0d2e\u0d3f\u0d24\u0d4d\u0d24\u0d02": 5492,
  "\u2581Instead": 5493,
  "\u2581general": 5494,
  "\u2581\u0d05\u0d28\u0d4d\u0d24\u0d4d\u0d2f": 5495,
  "\u2581\u0d28\u0d28\u0d4d\u0d28\u0d3e\u0d2f\u0d31\u0d3f\u0d2f\u0d41\u0d28\u0d4d\u0d28\u0d35\u0d28": 5496,
  "\u2581\u0d2d\u0d7c\u0d24\u0d4d\u0d24\u0d3e\u0d35": 5497,
  "\u2581fat": 5498,
  "\u2581mis": 5499,
  "\u2581\u0d05\u0d2d\u0d3f\u0d37\u0d3f\u0d15\u0d4d\u0d24": 5500,
  "\u2581\u0d2f\u0d46\u0d36\u0d2f\u0d4d\u0d2f\u0d3e\u0d35\u0d41": 5501,
  "\u2581\u0d38\u0d24\u0d4d\u0d2f\u0d28\u0d3f\u0d37\u0d47\u0d27\u0d3f\u0d15\u0d33": 5502,
  "\u2581\u0d38\u0d39\u0d3e\u0d2f\u0d3f\u0d15\u0d4d\u0d15\u0d3e\u0d7b": 5503,
  "\u0d2d\u0d4d\u0d30": 5504,
  "\u2581standards": 5505,
  "\u2581\u0d0e\u0d28\u0d4d\u0d24\u0d4a\u0d15\u0d4d\u0d15\u0d46": 5506,
  "\u0d2e\u0d41\u0d34": 5507,
  "\u2581struck": 5508,
  "\u2581\u0d28\u0d3f\u0d2f\u0d28\u0d4d\u0d24\u0d4d\u0d30\u0d23": 5509,
  "\u2581\u0d35\u0d3f\u0d35\u0d47\u0d15": 5510,
  "use": 5511,
  "\u2581table": 5512,
  "\u2581\u0d05\u0d2a\u0d4d\u0d2a\u0d4a": 5513,
  "\u2581\u0d15\u0d3e\u0d23\u0d3f\u0d15\u0d4d\u0d15\u0d41\u0d28\u0d4d\u0d28": 5514,
  "\u2581\u0d21\u0d2f": 5515,
  "\u2581\u0d2a\u0d30\u0d3f\u0d36\u0d41\u0d26\u0d4d\u0d27\u0d3e\u0d24\u0d4d\u0d2e\u0d3e\u0d35": 5516,
  "\u2581\u0d2a\u0d36\u0d4d\u0d1a\u0d3e\u0d24\u0d4d\u0d24\u0d3e\u0d2a\u0d02": 5517,
  "\u0d35\u0d7c\u0d15\u0d4d\u0d15\u0d41": 5518,
  "\u2581daily": 5519,
  "\u2581treat": 5520,
  "\u2581\u0d28\u0d4b\u0d15\u0d4d\u0d15\u0d3f\u0d2f": 5521,
  "\u2581\u0d2e\u0d28\u0d41\u0d37\u0d4d\u0d2f\u0d28\u0d4d\u0d31\u0d46": 5522,
  "\u2581\u0d38\u0d3e\u0d27\u0d3f\u0d15\u0d4d\u0d15": 5523,
  "log": 5524,
  "\u0d28\u0d3f\u0d31": 5525,
  "\u2581cold": 5526,
  "\u2581falsehood": 5527,
  "\u2581\u0d05\u0d32\u0d4d\u0d32\u0d3e\u0d39\u0d41\u0d35": 5528,
  "tal": 5529,
  "\u0d15\u0d4a\u0d7e\u0d35\u0d3f\u0d7b": 5530,
  "\u0d39\u0d47": 5531,
  "\u2581major": 5532,
  "\u2581proper": 5533,
  "\u2581\u0d24\u0d46\u0d33\u0d3f": 5534,
  "\u0d41\u0d28\u0d4d\u0d28\u0d24\u0d32\u0d4d\u0d32": 5535,
  "\u2581released": 5536,
  "\u2581youth": 5537,
  "\u0d2a\u0d4d\u0d2a\u0d31": 5538,
  "\u2581square": 5539,
  "\u2581\u0d0e\u0d24\u0d4d\u0d30\u0d2f\u0d4b": 5540,
  "\u2581\u0d15\u0d4a\u0d23\u0d4d\u0d1f\u0d41\u0d2a\u0d4b\u0d15": 5541,
  "\u2581\u0d1a\u0d46\u0d2f\u0d4d\u0d2f\u0d41": 5542,
  "\u2581\u0d15\u0d3f\u0d1f\u0d4d\u0d1f\u0d41\u0d02": 5543,
  "\u2581\u0d15\u0d46\u0d1f\u0d4d\u0d1f": 5544,
  "\u2581\u0d1c\u0d3e\u0d24\u0d3f": 5545,
  "\u0d2e\u0d28\u0d38\u0d4d\u0d38": 5546,
  "\u2581German": 5547,
  "\u2581warm": 5548,
  "\u2581\u0d15\u0d24\u0d4d\u0d24": 5549,
  "\u2581\u0d24\u0d42\u0d15\u0d4d\u0d15": 5550,
  "\u2581\u0d2a\u0d3f\u0d28\u0d4d\u0d28\u0d3e\u0d32\u0d46": 5551,
  "\u0d15\u0d4a\u0d23\u0d4d\u0d1f\u0d41\u0d33\u0d4d\u0d33": 5552,
  "\u0d24\u0d3f\u0d28": 5553,
  "\u2581Africa": 5554,
  "\u2581Perhaps": 5555,
  "\u2581favour": 5556,
  "\u2581fill": 5557,
  "\u2581\u0d17\u0d4d\u0d30\u0d39\u0d3f\u0d15\u0d4d\u0d15": 5558,
  "\u2581Har": 5559,
  "\u2581guy": 5560,
  "\u2581\u0d1a\u0d3f\u0d32\u0d24\u0d4d": 5561,
  "\u2581\u0d24\u0d3f\u0d30\u0d3f\u0d15\u0d46": 5562,
  "\u2581\u0d26\u0d3f\u0d35\u0d38\u0d35\u0d41\u0d02": 5563,
  "\u2581\u0d28\u0d1f\u0d2a\u0d4d\u0d2a": 5564,
  "\u2581\u0d2a\u0d4d\u0d30\u0d26\u0d3e\u0d28\u0d02": 5565,
  "\u0d2b\u0d3e": 5566,
  "\u2581Could": 5567,
  "\u2581d": 5568,
  "\u2581east": 5569,
  "\u2581\u0d12\u0d30\u0d41\u0d2a\u0d15\u0d4d\u0d37\u0d47": 5570,
  "\u2581\u0d2a\u0d4b\u0d15\u0d41\u0d02": 5571,
  "ient": 5572,
  "\u0d23\u0d4d\u0d1f\u0d3e": 5573,
  "\u2581burnt": 5574,
  "\u2581\u0d2f\u0d46\u0d39\u0d42\u0d26\u0d3e": 5575,
  "lon": 5576,
  "\u2581abide": 5577,
  "\u2581increased": 5578,
  "\u2581process": 5579,
  "\u2581simple": 5580,
  "\u0d15\u0d4d\u0d15\u0d3f\u0d7d": 5581,
  "\u0d3e\u0d28\u0d4d\u0d24\u0d30": 5582,
  "\u2581Da": 5583,
  "\u2581fruits": 5584,
  "\u2581\u0d1c\u0d40\u0d35\u0d3f\u0d2a\u0d4d\u0d2a\u0d3f\u0d15\u0d4d\u0d15": 5585,
  "\u2581\u0d35\u0d30\u0d41\u0d28\u0d4d\u0d28\u0d24\u0d4d": 5586,
  "\u0d31\u0d3f\u0d2f\u0d3e\u0d02": 5587,
  "\u2581invited": 5588,
  "\u2581pressure": 5589,
  "\u2581search": 5590,
  "\u2581privilege": 5591,
  "\u2581warned": 5592,
  "\u2581\u0d05\u0d28\u0d41\u0d2d\u0d35\u0d3f\u0d1a\u0d4d\u0d1a": 5593,
  "\u0d38\u0d7a": 5594,
  "\u2581Du": 5595,
  "\u2581develop": 5596,
  "\u2581ha": 5597,
  "\u2581\u0d38\u0d3e\u0d15\u0d4d\u0d37\u0d3f\u0d15\u0d33\u0d41\u0d1f\u0d46": 5598,
  "ES": 5599,
  "\u0d6e": 5600,
  "\u2581Gardens": 5601,
  "\u2581languages": 5602,
  "\u2581\u0d24\u0d3f\u0d28\u0d4d\u0d28\u0d41": 5603,
  "\u0d2a\u0d4d\u0d2a\u0d4b\u0d34": 5604,
  "\u2581covered": 5605,
  "\u2581sees": 5606,
  "\u2581Com": 5607,
  "\u2581literature": 5608,
  "\u2581reign": 5609,
  "\u2581\u0d07\u0d32\u0d4d\u0d32\u0d3e\u0d24\u0d4d\u0d24": 5610,
  "\u2581\u0d15\u0d3e\u0d32\u0d24\u0d4d\u0d24\u0d41": 5611,
  "\u2581\u0d1a\u0d3f\u0d28\u0d4d\u0d24\u0d3f\u0d15\u0d4d\u0d15": 5612,
  "\u2581\u0d1a\u0d41\u0d30\u0d41\u0d15\u0d4d\u0d15": 5613,
  "\u2581\u0d2e\u0d3e\u0d24\u0d3e\u0d2a\u0d3f\u0d24\u0d3e\u0d15\u0d4d\u0d15\u0d7e": 5614,
  "\u2581\u0d38\u0d47\u0d35\u0d3f\u0d15\u0d4d\u0d15": 5615,
  "bu": 5616,
  "\u2581ear": 5617,
  "\u2581\u0d2d\u0d42\u0d2e\u0d3f\u0d2f\u0d41\u0d02": 5618,
  "\u2581\u0d35\u0d1a\u0d28\u0d19\u0d4d\u0d19\u0d33": 5619,
  "\u2581\u0d35\u0d3f\u0d36\u0d47\u0d37": 5620,
  "\u0d2a\u0d3f\u0d28\u0d4d\u0d31\u0d46": 5621,
  "yn": 5622,
  "\u0d1c\u0d40": 5623,
  "\u2581added": 5624,
  "\u2581guides": 5625,
  "\u2581\u0d2e\u0d41\u0d7b\u0d2a\u0d4d": 5626,
  "\u2581\u0d35\u0d1a\u0d4d\u0d1a\u0d4d": 5627,
  "Let": 5628,
  "\u2581minutes": 5629,
  "\u2581wild": 5630,
  "\u0d24\u0d4d\u0d24\u0d3e\u0d7b": 5631,
  "\u2581Hour": 5632,
  "\u2581lying": 5633,
  "\u2581\u0d09\u0d1f\u0d2e\u0d4d\u0d2a\u0d1f\u0d3f": 5634,
  "bel": 5635,
  "\u2581lawful": 5636,
  "\u2581\u0d24\u0d15\u0d4d\u0d15\u0d35\u0d23\u0d4d\u0d23\u0d02": 5637,
  "\u2581\u0d24\u0d4d\u0d24\u0d4b": 5638,
  "\u2581\u0d30\u0d15\u0d4d\u0d37\u0d3f\u0d24\u0d3e\u0d35": 5639,
  "\u2581\u0d38\u0d28\u0d4d\u0d28\u0d3f\u0d27\u0d3f\u0d2f\u0d3f\u0d7d": 5640,
  "\u0d35\u0d28\u0d3e\u0d2f\u0d3f": 5641,
  "\u0d46\u0d19\u0d4d\u0d19\u0d28\u0d46": 5642,
  "\u2581Cu": 5643,
  "\u2581Hebrews": 5644,
  "\u2581\u0d15\u0d41\u0d31\u0d3f\u0d1a\u0d4d\u0d1a\u0d41\u0d33\u0d4d\u0d33": 5645,
  "\u2581\u0d1c\u0d40": 5646,
  "\u2581\u0d2e\u0d41\u0d16\u0d47\u0d28": 5647,
  "\u2581\u0d35\u0d47\u0d23\u0d4d\u0d1f\u0d24\u0d4d": 5648,
  "+": 5649,
  "\u2581Genesis": 5650,
  "\u2581color": 5651,
  "\u2581responsibility": 5652,
  "\u2581vital": 5653,
  "\u2581\u0d17\u0d4d\u0d30\u0d39": 5654,
  "\u2581\u0d2a\u0d4d\u0d30\u0d3e\u0d2f": 5655,
  "gram": 5656,
  "\u0d30\u0d40\u0d24\u0d3f": 5657,
  "\u0d35\u0d30\u0d3e\u0d2f": 5658,
  "\u2581conscience": 5659,
  "\u2581\u0d0e\u0d28\u0d4d\u0d24\u0d41\u0d15\u0d4a\u0d23\u0d4d\u0d1f\u0d3e\u0d23\u0d4d": 5660,
  "\u2581\u0d24\u0d32\u0d28\u0d3e\u0d2f": 5661,
  "\u2581\u0d32\u0d1c\u0d4d\u0d1c": 5662,
  "\u0d36\u0d4d\u0d30\u0d2e": 5663,
  "\u0d47\u0d2f\u0d41\u0d02": 5664,
  "\u0d6c": 5665,
  "\u2581Hence": 5666,
  "\u2581benefits": 5667,
  "\u2581\u0d36\u0d3f\u0d37\u0d4d\u0d2f": 5668,
  "\u2581Isaac": 5669,
  "\u2581flee": 5670,
  "\u2581task": 5671,
  "\u2581\u0d06\u0d15\u0d4d\u0d30\u0d2e\u0d23": 5672,
  "\u2581\u0d15\u0d4a\u0d33\u0d4d\u0d33\u0d3e\u0d02": 5673,
  "\u2581Pu": 5674,
  "\u2581\u0d15\u0d46\u0d1f\u0d4d\u0d1f\u0d3f\u0d1f": 5675,
  "\u2581\u0d26\u0d43\u0d37\u0d4d\u0d1f\u0d3e\u0d28\u0d4d\u0d24": 5676,
  "\u2581\u0d2a\u0d4d\u0d2a\u0d4b\u0d7e": 5677,
  "\u2581\u0d2d\u0d4b\u0d37": 5678,
  "istic": 5679,
  "nt": 5680,
  "\u0d2a\u0d4b\u0d15\u0d41\u0d02": 5681,
  "\u2581completely": 5682,
  "\u2581twenty": 5683,
  "\u2581\u0d06\u0d32\u0d2f": 5684,
  "ped": 5685,
  "\u0d35\u0d30\u0d41\u0d28\u0d4d\u0d28": 5686,
  "\u2581\u0d06\u0d27\u0d3f\u0d2a\u0d24\u0d4d\u0d2f\u0d02": 5687,
  "\u2581\u0d1c\u0d42": 5688,
  "\u0d38\u0d2e": 5689,
  "\u0d41\u0d15\u0d4a\u0d23\u0d4d\u0d1f\u0d41": 5690,
  "\u2581apply": 5691,
  "\u2581concern": 5692,
  "\u2581\u0d15\u0d34\u0d3f\u0d1a\u0d4d\u0d1a": 5693,
  "\u0d35\u0d43\u0d24\u0d4d\u0d24\u0d3f": 5694,
  "\u2581vain": 5695,
  "\u2581\u0d06\u0d30\u0d02\u0d2d\u0d3f\u0d1a\u0d4d\u0d1a": 5696,
  "\u2581\u0d38\u0d4d\u0d35\u0d7c\u0d17\u0d4d\u0d17": 5697,
  "\u0d2e\u0d3e\u0d30\u0d41\u0d1f\u0d46": 5698,
  "\u0d47\u0d23\u0d4d\u0d1f\u0d24\u0d3f\u0d32\u0d4d\u0d32": 5699,
  "\u2581Mag": 5700,
  "\u2581valley": 5701,
  "way": 5702,
  "\u0d15\u0d4d\u0d30\u0d3f\u0d38\u0d4d": 5703,
  "\u0d32\u0d4d\u0d32\u0d46": 5704,
  "\u2581center": 5705,
  "\u2581shit": 5706,
  "\u2581\u0d15\u0d47\u0d7e\u0d15\u0d4d\u0d15\u0d41\u0d28\u0d4d\u0d28\u0d35\u0d28\u0d41\u0d02": 5707,
  "\u2581\u0d2f\u0d46\u0d39\u0d42\u0d26": 5708,
  "ix": 5709,
  "\u0d7c\u0d2f\u0d4d\u0d2f": 5710,
  "\u2581low": 5711,
  "\u2581upright": 5712,
  "\u2581\u0d28\u0d36\u0d3f\u0d2a\u0d4d\u0d2a\u0d3f\u0d1a\u0d4d\u0d1a": 5713,
  "\u2581\u0d36\u0d24\u0d4d\u0d30\u0d41\u0d35": 5714,
  "\u2581Should": 5715,
  "\u2581sat": 5716,
  "\u2581\u0d38\u0d4d\u0d35\u0d7c\u0d17\u0d24\u0d4d\u0d24\u0d3f\u0d7d": 5717,
  "\u2581\u0d38\u0d7d\u0d15\u0d4d\u0d15\u0d7c\u0d2e\u0d19\u0d4d\u0d19\u0d7e": 5718,
  "\u0d28\u0d40\u0d2f": 5719,
  "\u0d4a\u0d28\u0d4d\u0d28\u0d41\u0d2e\u0d3f\u0d32\u0d4d\u0d32": 5720,
  "\u2581bones": 5721,
  "\u2581idols": 5722,
  "\u2581\u0d0e\u0d32\u0d4d\u0d32\u0d3e\u0d2f\u0d4d": 5723,
  "\u2581\u0d28\u0d41\u0d33\u0d4d\u0d33": 5724,
  "\u2581\u0d2a\u0d3f\u0d36\u0d3e\u0d1a": 5725,
  "\u2581\u0d2a\u0d4d\u0d30\u0d38\u0d3e\u0d26": 5726,
  "\u2581\u0d32\u0d4b\u0d15\u0d24\u0d4d\u0d24\u0d3f\u0d28\u0d4d\u0d31\u0d46": 5727,
  "des": 5728,
  "\u0d3e\u0d31\u0d3f\u0d32\u0d4d\u0d32": 5729,
  "\u0d3f\u0d19\u0d4d\u0d15\u0d7d": 5730,
  "\u2581bestowed": 5731,
  "\u2581Germany": 5732,
  "\u2581Listen": 5733,
  "\u2581\u0d05\u0d1e\u0d4d\u0d1a": 5734,
  "\u2581\u0d1a\u0d1f\u0d4d\u0d1f": 5735,
  "\u2581explains": 5736,
  "\u2581repentance": 5737,
  "\u2581\u0d24\u0d2e\u0d4d\u0d2e\u0d3f\u0d32\u0d41\u0d33\u0d4d\u0d33": 5738,
  "\u2581\u0d2e\u0d28\u0d41\u0d37\u0d4d\u0d2f\u0d30\u0d46": 5739,
  "\u2581practice": 5740,
  "\u2581replied": 5741,
[...]
